{"version":"1.0","truncation":null,"padding":null,"added_tokens":[{"id":0,"special":true,"content":"<sos>","single_word":false,"lstrip":false,"rstrip":false,"normalized":false},{"id":1,"special":true,"content":"<pad>","single_word":false,"lstrip":false,"rstrip":false,"normalized":false},{"id":2,"special":true,"content":"<eos>","single_word":false,"lstrip":false,"rstrip":false,"normalized":false},{"id":3,"special":true,"content":"<unk>","single_word":false,"lstrip":false,"rstrip":false,"normalized":false}],"normalizer":null,"pre_tokenizer":{"type":"Whitespace"},"post_processor":{"type":"ByteLevel","add_prefix_space":true,"trim_offsets":false},"decoder":{"type":"ByteLevel","add_prefix_space":true,"trim_offsets":true},"model":{"type":"BPE","dropout":null,"unk_token":null,"continuing_subword_prefix":null,"end_of_word_suffix":null,"fuse_unk":false,"vocab":{"<sos>":0,"<pad>":1,"<eos>":2,"<unk>":3,"!":4,"\"":5,"#":6,"$":7,"%":8,"&":9,"'":10,"(":11,")":12,"*":13,"+":14,",":15,"-":16,".":17,"/":18,"0":19,"1":20,"2":21,"3":22,"4":23,"5":24,"6":25,"7":26,"8":27,"9":28,":":29,";":30,"<":31,"=":32,">":33,"?":34,"@":35,"A":36,"B":37,"C":38,"D":39,"E":40,"F":41,"G":42,"H":43,"I":44,"J":45,"K":46,"L":47,"M":48,"N":49,"O":50,"P":51,"Q":52,"R":53,"S":54,"T":55,"U":56,"V":57,"W":58,"X":59,"Y":60,"Z":61,"[":62,"\\":63,"]":64,"^":65,"_":66,"`":67,"a":68,"b":69,"c":70,"d":71,"e":72,"f":73,"g":74,"h":75,"i":76,"j":77,"k":78,"l":79,"m":80,"n":81,"o":82,"p":83,"q":84,"r":85,"s":86,"t":87,"u":88,"v":89,"w":90,"x":91,"y":92,"z":93,"{":94,"|":95,"}":96,"~":97,"":98,"":99,"":100,"":101,"":102,"":103,"":104,"":105,"":106,"":107,"":108,"":109,"":110,"":111,"":112,"":113,"":114,"¡":115,"¢":116,"£":117,"¤":118,"¥":119,"¦":120,"§":121,"¨":122,"©":123,"ª":124,"«":125,"¬":126,"­":127,"®":128,"¯":129,"°":130,"±":131,"²":132,"³":133,"´":134,"µ":135,"¶":136,"·":137,"¸":138,"¹":139,"º":140,"»":141,"¼":142,"½":143,"¾":144,"¿":145,"À":146,"Á":147,"Â":148,"Ã":149,"Ä":150,"Å":151,"Æ":152,"Ç":153,"È":154,"É":155,"Ê":156,"Ë":157,"Ì":158,"Í":159,"Î":160,"Ï":161,"Ð":162,"Ñ":163,"Ò":164,"Ó":165,"Ô":166,"Õ":167,"Ö":168,"×":169,"Ø":170,"Ù":171,"Ú":172,"Û":173,"Ü":174,"Ý":175,"Þ":176,"ß":177,"à":178,"á":179,"â":180,"ã":181,"ä":182,"å":183,"æ":184,"ç":185,"è":186,"é":187,"ê":188,"ë":189,"ì":190,"í":191,"î":192,"ï":193,"ð":194,"ñ":195,"ò":196,"ó":197,"ô":198,"õ":199,"ö":200,"÷":201,"ø":202,"ù":203,"ú":204,"û":205,"ü":206,"ý":207,"þ":208,"ÿ":209,"Ā":210,"ā":211,"Ă":212,"ă":213,"Ą":214,"ą":215,"Ć":216,"ć":217,"Ĉ":218,"ĉ":219,"Ċ":220,"ċ":221,"Č":222,"č":223,"Ď":224,"ď":225,"Đ":226,"đ":227,"Ē":228,"ē":229,"Ĕ":230,"ĕ":231,"Ė":232,"ė":233,"Ę":234,"ę":235,"Ě":236,"ě":237,"Ĝ":238,"ĝ":239,"Ğ":240,"ğ":241,"Ġ":242,"ġ":243,"Ģ":244,"ģ":245,"Ĥ":246,"ĥ":247,"Ħ":248,"ħ":249,"Ĩ":250,"ĩ":251,"Ī":252,"ī":253,"Ĭ":254,"ĭ":255,"Į":256,"į":257,"İ":258,"ı":259,"Ĳ":260,"ĳ":261,"Ĵ":262,"ĵ":263,"Ķ":264,"ķ":265,"ĸ":266,"Ĺ":267,"ĺ":268,"Ļ":269,"ļ":270,"Ľ":271,"ľ":272,"Ŀ":273,"ŀ":274,"Ł":275,"ł":276,"Ń":277,"ń":278,"Ņ":279,"ņ":280,"Ň":281,"ň":282,"Ŋ":283,"ŋ":284,"Ō":285,"ō":286,"Ŏ":287,"ŏ":288,"Ő":289,"ő":290,"Œ":291,"œ":292,"Ŕ":293,"ŕ":294,"Ŗ":295,"ŗ":296,"Ř":297,"ř":298,"Ś":299,"ś":300,"Ŝ":301,"ŝ":302,"Ş":303,"ş":304,"Š":305,"š":306,"Ţ":307,"ţ":308,"Ť":309,"ť":310,"Ŧ":311,"ŧ":312,"Ũ":313,"ũ":314,"Ū":315,"ū":316,"Ŭ":317,"ŭ":318,"Ů":319,"ů":320,"Ű":321,"ű":322,"Ų":323,"ų":324,"Ŵ":325,"ŵ":326,"Ŷ":327,"ŷ":328,"Ÿ":329,"Ź":330,"ź":331,"Ż":332,"ż":333,"Ž":334,"ž":335,"ſ":336,"ƀ":337,"Ɓ":338,"Ƅ":339,"Ɔ":340,"Ƈ":341,"ƈ":342,"Ɖ":343,"Ɗ":344,"ƍ":345,"Ǝ":346,"Ə":347,"Ɛ":348,"Ƒ":349,"ƒ":350,"Ɠ":351,"Ɣ":352,"ƕ":353,"Ɨ":354,"Ƙ":355,"ƙ":356,"ƚ":357,"ƛ":358,"Ɯ":359,"Ɲ":360,"ƞ":361,"Ɵ":362,"Ơ":363,"ơ":364,"Ƣ":365,"ƣ":366,"Ʀ":367,"Ƨ":368,"ƨ":369,"Ʃ":370,"ƪ":371,"ƭ":372,"Ʈ":373,"Ư":374,"ư":375,"Ʊ":376,"Ʋ":377,"Ƴ":378,"ƴ":379,"Ƶ":380,"ƶ":381,"Ʒ":382,"Ƹ":383,"ƺ":384,"Ƽ":385,"ƿ":386,"ǀ":387,"ǁ":388,"ǂ":389,"ǃ":390,"Ǆ":391,"ǅ":392,"ǆ":393,"Ǉ":394,"ǋ":395,"ǌ":396,"Ǎ":397,"ǎ":398,"Ǐ":399,"ǐ":400,"Ǒ":401,"ǒ":402,"Ǔ":403,"ǔ":404,"Ǖ":405,"ǖ":406,"Ǘ":407,"ǘ":408,"Ǚ":409,"ǚ":410,"Ǜ":411,"ǜ":412,"ǝ":413,"ǟ":414,"Ǣ":415,"ǣ":416,"ǥ":417,"Ǧ":418,"ǧ":419,"Ǩ":420,"ǩ":421,"Ǫ":422,"ǫ":423,"ǭ":424,"Ǯ":425,"ǯ":426,"ǰ":427,"Ǵ":428,"ǵ":429,"Ƕ":430,"Ƿ":431,"Ǹ":432,"ǹ":433,"Ǽ":434,"ǽ":435,"Ǿ":436,"ǿ":437,"ȁ":438,"ȃ":439,"ȅ":440,"ȉ":441,"Ȋ":442,"ȋ":443,"ȍ":444,"ȏ":445,"ȗ":446,"Ș":447,"ș":448,"Ț":449,"ț":450,"Ȝ":451,"ȝ":452,"Ȟ":453,"ȟ":454,"Ȣ":455,"ȣ":456,"Ȥ":457,"ȥ":458,"Ȧ":459,"ȧ":460,"Ȩ":461,"ȩ":462,"Ȯ":463,"ȯ":464,"Ȳ":465,"ȳ":466,"ȷ":467,"ȹ":468,"Ȼ":469,"Ƚ":470,"Ƀ":471,"Ʉ":472,"Ʌ":473,"Ɉ":474,"Ɋ":475,"ɋ":476,"ɐ":477,"ɑ":478,"ɒ":479,"ɓ":480,"ɔ":481,"ɕ":482,"ɖ":483,"ɗ":484,"ɘ":485,"ə":486,"ɚ":487,"ɛ":488,"ɜ":489,"ɞ":490,"ɟ":491,"ɠ":492,"ɡ":493,"ɢ":494,"ɣ":495,"ɤ":496,"ɥ":497,"ɦ":498,"ɧ":499,"ɨ":500,"ɩ":501,"ɪ":502,"ɫ":503,"ɬ":504,"ɭ":505,"ɮ":506,"ɯ":507,"ɰ":508,"ɱ":509,"ɲ":510,"ɳ":511,"ɴ":512,"ɵ":513,"ɶ":514,"ɸ":515,"ɹ":516,"ɺ":517,"ɻ":518,"ɽ":519,"ɾ":520,"ɿ":521,"ʀ":522,"ʁ":523,"ʂ":524,"ʃ":525,"ʄ":526,"ʅ":527,"ʆ":528,"ʇ":529,"ʈ":530,"ʉ":531,"ʊ":532,"ʋ":533,"ʌ":534,"ʍ":535,"ʎ":536,"ʏ":537,"ʐ":538,"ʑ":539,"ʒ":540,"ʓ":541,"ʔ":542,"ʕ":543,"ʖ":544,"ʗ":545,"ʘ":546,"ʙ":547,"ʚ":548,"ʛ":549,"ʜ":550,"ʝ":551,"ʟ":552,"ʠ":553,"ʡ":554,"ʢ":555,"ʣ":556,"ʤ":557,"ʥ":558,"ʦ":559,"ʧ":560,"ʨ":561,"ʰ":562,"ʱ":563,"ʲ":564,"ʳ":565,"ʷ":566,"ʸ":567,"ʹ":568,"ʺ":569,"ʻ":570,"ʼ":571,"ʽ":572,"ʾ":573,"ʿ":574,"ˀ":575,"ˁ":576,"˄":577,"ˆ":578,"ˇ":579,"ˈ":580,"ˊ":581,"ˌ":582,"ː":583,"ˑ":584,"˒":585,"˓":586,"˖":587,"˗":588,"˘":589,"˙":590,"˚":591,"˛":592,"˝":593,"˞":594,"˟":595,"ˠ":596,"ˡ":597,"ˢ":598,"ˤ":599,"˥":600,"˦":601,"˧":602,"˨":603,"˩":604,"ˮ":605,"̀":606,"́":607,"̂":608,"̃":609,"̄":610,"̅":611,"̆":612,"̇":613,"̈":614,"̉":615,"̊":616,"̋":617,"̌":618,"̍":619,"̐":620,"̑":621,"̓":622,"̘":623,"̙":624,"̚":625,"̛":626,"̝":627,"̞":628,"̟":629,"̠":630,"̡":631,"̣":632,"̤":633,"̥":634,"̧":635,"̨":636,"̩":637,"̪":638,"̬":639,"̭":640,"̮":641,"̯":642,"̰":643,"̱":644,"̲":645,"̵":646,"̶":647,"̹":648,"̺":649,"̼":650,"͂":651,"͇":652,"͈":653,"͗":654,"͘":655,"͜":656,"͟":657,"͡":658,"ͤ":659,"Ͳ":660,"ͳ":661,"͵":662,"Ͷ":663,"΄":664,"Ά":665,"Έ":666,"Ί":667,"Ό":668,"Ύ":669,"Ώ":670,"ΐ":671,"Α":672,"Β":673,"Γ":674,"Δ":675,"Ε":676,"Ζ":677,"Η":678,"Θ":679,"Ι":680,"Κ":681,"Λ":682,"Μ":683,"Ν":684,"Ξ":685,"Ο":686,"Π":687,"Ρ":688,"Σ":689,"Τ":690,"Υ":691,"Φ":692,"Χ":693,"Ψ":694,"Ω":695,"ά":696,"έ":697,"ή":698,"ί":699,"ΰ":700,"α":701,"β":702,"γ":703,"δ":704,"ε":705,"ζ":706,"η":707,"θ":708,"ι":709,"κ":710,"λ":711,"μ":712,"ν":713,"ξ":714,"ο":715,"π":716,"ρ":717,"ς":718,"σ":719,"τ":720,"υ":721,"φ":722,"χ":723,"ψ":724,"ω":725,"ϊ":726,"ϋ":727,"ό":728,"ύ":729,"ώ":730,"Ϗ":731,"ϐ":732,"ϑ":733,"ϒ":734,"ϕ":735,"ϖ":736,"ϗ":737,"Ϙ":738,"ϙ":739,"Ϛ":740,"ϛ":741,"Ϝ":742,"ϝ":743,"Ϟ":744,"ϟ":745,"Ϡ":746,"ϡ":747,"Ϣ":748,"ϣ":749,"Ϥ":750,"ϥ":751,"Ϧ":752,"ϧ":753,"Ϩ":754,"ϩ":755,"Ϫ":756,"ϫ":757,"Ϭ":758,"ϭ":759,"Ϯ":760,"ϯ":761,"ϰ":762,"ϱ":763,"ϲ":764,"ϳ":765,"ϵ":766,"Ϸ":767,"ϸ":768,"Ϲ":769,"Ϻ":770,"ϻ":771,"Ͻ":772,"Ͼ":773,"Ͽ":774,"Ё":775,"Ђ":776,"Ѓ":777,"Є":778,"Ѕ":779,"І":780,"Ї":781,"Ј":782,"Љ":783,"Њ":784,"Ћ":785,"Ќ":786,"Ў":787,"Џ":788,"А":789,"Б":790,"В":791,"Г":792,"Д":793,"Е":794,"Ж":795,"З":796,"И":797,"Й":798,"К":799,"Л":800,"М":801,"Н":802,"О":803,"П":804,"Р":805,"С":806,"Т":807,"У":808,"Ф":809,"Х":810,"Ц":811,"Ч":812,"Ш":813,"Щ":814,"Ъ":815,"Ы":816,"Ь":817,"Э":818,"Ю":819,"Я":820,"а":821,"б":822,"в":823,"г":824,"д":825,"е":826,"ж":827,"з":828,"и":829,"й":830,"к":831,"л":832,"м":833,"н":834,"о":835,"п":836,"р":837,"с":838,"т":839,"у":840,"ф":841,"х":842,"ц":843,"ч":844,"ш":845,"щ":846,"ъ":847,"ы":848,"ь":849,"э":850,"ю":851,"я":852,"ѐ":853,"ё":854,"ђ":855,"ѓ":856,"є":857,"ѕ":858,"і":859,"ї":860,"ј":861,"љ":862,"њ":863,"ћ":864,"ќ":865,"ў":866,"џ":867,"Ѡ":868,"ѡ":869,"ѣ":870,"Ѥ":871,"ѥ":872,"Ѧ":873,"ѧ":874,"ѩ":875,"Ѫ":876,"ѫ":877,"Ѭ":878,"ѭ":879,"Ѯ":880,"Ѱ":881,"ѱ":882,"Ѳ":883,"ѳ":884,"Ѵ":885,"ѵ":886,"ѿ":887,"Ҁ":888,"҃":889,"҅":890,"҆":891,"Ґ":892,"ґ":893,"Ғ":894,"ғ":895,"Ҕ":896,"ҕ":897,"җ":898,"Ҙ":899,"ҙ":900,"Қ":901,"қ":902,"ҟ":903,"Ҡ":904,"ҡ":905,"Ң":906,"ң":907,"Ҥ":908,"ҥ":909,"Ҧ":910,"ҧ":911,"Ҫ":912,"ҫ":913,"Ҭ":914,"Ү":915,"ү":916,"Ұ":917,"ұ":918,"Ҳ":919,"ҵ":920,"ҷ":921,"ҹ":922,"Һ":923,"һ":924,"Ӄ":925,"ӈ":926,"Ӑ":927,"ӑ":928,"Ӕ":929,"ӕ":930,"Ӗ":931,"ӗ":932,"Ә":933,"ә":934,"ӡ":935,"ӧ":936,"Ө":937,"ө":938,"Ӫ":939,"ӱ":940,"Ӳ":941,"ӳ":942,"Ӷ":943,"ӹ":944,"ԕ":945,"ԗ":946,"ԙ":947,"Ԥ":948,"Ա":949,"Բ":950,"Գ":951,"Դ":952,"Ե":953,"Զ":954,"Է":955,"Ը":956,"Թ":957,"Ժ":958,"Ի":959,"Լ":960,"Խ":961,"Ծ":962,"Կ":963,"Հ":964,"Ձ":965,"Ղ":966,"Ճ":967,"Մ":968,"Յ":969,"Ն":970,"Շ":971,"Ո":972,"Չ":973,"Պ":974,"Ջ":975,"Ռ":976,"Ս":977,"Վ":978,"Տ":979,"Ր":980,"Ց":981,"Ւ":982,"Փ":983,"Ք":984,"Օ":985,"Ֆ":986,"ա":987,"բ":988,"գ":989,"դ":990,"ե":991,"զ":992,"է":993,"թ":994,"ժ":995,"ի":996,"լ":997,"խ":998,"ծ":999,"կ":1000,"հ":1001,"ղ":1002,"ճ":1003,"մ":1004,"յ":1005,"ն":1006,"շ":1007,"ո":1008,"չ":1009,"պ":1010,"ջ":1011,"ռ":1012,"ս":1013,"վ":1014,"տ":1015,"ր":1016,"ց":1017,"ւ":1018,"փ":1019,"ք":1020,"օ":1021,"ֆ":1022,"և":1023,"֏":1024,"֑":1025,"֔":1026,"֖":1027,"֗":1028,"֚":1029,"֜":1030,"֣":1031,"֥":1032,"֨":1033,"֬":1034,"֮":1035,"ְ":1036,"ֱ":1037,"ֲ":1038,"ִ":1039,"ֵ":1040,"ֶ":1041,"ַ":1042,"ָ":1043,"ֹ":1044,"ֻ":1045,"ּ":1046,"ֽ":1047,"־":1048,"ֿ":1049,"ׁ":1050,"ׂ":1051,"ׄ":1052,"א":1053,"ב":1054,"ג":1055,"ד":1056,"ה":1057,"ו":1058,"ז":1059,"ח":1060,"ט":1061,"י":1062,"ך":1063,"כ":1064,"ל":1065,"ם":1066,"מ":1067,"ן":1068,"נ":1069,"ס":1070,"ע":1071,"ף":1072,"פ":1073,"ץ":1074,"צ":1075,"ק":1076,"ר":1077,"ש":1078,"ת":1079,"װ":1080,"ײ":1081,"׳":1082,"״":1083,"؀":1084,"؁":1085,"؂":1086,"؃":1087,"؋":1088,"،":1089,"؍":1090,"؎":1091,"؏":1092,"ؐ":1093,"ؑ":1094,"ؒ":1095,"ؓ":1096,"ؔ":1097,"ؕ":1098,"؛":1099,"؞":1100,"؟":1101,"ء":1102,"آ":1103,"أ":1104,"ؤ":1105,"إ":1106,"ئ":1107,"ا":1108,"ب":1109,"ة":1110,"ت":1111,"ث":1112,"ج":1113,"ح":1114,"خ":1115,"د":1116,"ذ":1117,"ر":1118,"ز":1119,"س":1120,"ش":1121,"ص":1122,"ض":1123,"ط":1124,"ظ":1125,"ع":1126,"غ":1127,"ـ":1128,"ف":1129,"ق":1130,"ك":1131,"ل":1132,"م":1133,"ن":1134,"ه":1135,"و":1136,"ى":1137,"ي":1138,"ً":1139,"ٌ":1140,"ٍ":1141,"َ":1142,"ُ":1143,"ِ":1144,"ّ":1145,"ْ":1146,"ٓ":1147,"ٔ":1148,"ٕ":1149,"ٖ":1150,"ٗ":1151,"٘":1152,"ٙ":1153,"ٚ":1154,"ٛ":1155,"ٜ":1156,"ٝ":1157,"ٞ":1158,"٠":1159,"١":1160,"٢":1161,"٣":1162,"٤":1163,"٥":1164,"٦":1165,"٧":1166,"٨":1167,"٩":1168,"٪":1169,"٫":1170,"٬":1171,"٭":1172,"ٮ":1173,"ٯ":1174,"ٰ":1175,"ٱ":1176,"ٲ":1177,"ٳ":1178,"ٵ":1179,"ٶ":1180,"ٷ":1181,"ٸ":1182,"ٹ":1183,"ٺ":1184,"ٻ":1185,"ټ":1186,"ٽ":1187,"پ":1188,"ٿ":1189,"ڀ":1190,"ځ":1191,"ڂ":1192,"ڃ":1193,"ڄ":1194,"څ":1195,"چ":1196,"ڇ":1197,"ڈ":1198,"ډ":1199,"ڊ":1200,"ڋ":1201,"ڌ":1202,"ڍ":1203,"ڎ":1204,"ڏ":1205,"ڐ":1206,"ڑ":1207,"ڒ":1208,"ړ":1209,"ڔ":1210,"ڕ":1211,"ږ":1212,"ڗ":1213,"ژ":1214,"ڙ":1215,"ښ":1216,"ڛ":1217,"ڜ":1218,"ڝ":1219,"ڞ":1220,"ڟ":1221,"ڠ":1222,"ڡ":1223,"ڢ":1224,"ڣ":1225,"ڤ":1226,"ڥ":1227,"ڦ":1228,"ڧ":1229,"ڨ":1230,"ک":1231,"ڪ":1232,"ګ":1233,"ڬ":1234,"ڭ":1235,"ڮ":1236,"گ":1237,"ڰ":1238,"ڱ":1239,"ڲ":1240,"ڳ":1241,"ڴ":1242,"ڵ":1243,"ڶ":1244,"ڷ":1245,"ڸ":1246,"ڹ":1247,"ں":1248,"ڻ":1249,"ڼ":1250,"ڽ":1251,"ھ":1252,"ڿ":1253,"ۀ":1254,"ہ":1255,"ۂ":1256,"ۃ":1257,"ۄ":1258,"ۅ":1259,"ۆ":1260,"ۇ":1261,"ۈ":1262,"ۉ":1263,"ۊ":1264,"ۋ":1265,"ی":1266,"ۍ":1267,"ێ":1268,"ۏ":1269,"ې":1270,"ۑ":1271,"ے":1272,"ۓ":1273,"۔":1274,"ە":1275,"ۖ":1276,"ۗ":1277,"ۘ":1278,"ۙ":1279,"ۚ":1280,"ۛ":1281,"ۜ":1282,"۝":1283,"۞":1284,"۟":1285,"۠":1286,"ۡ":1287,"ۢ":1288,"ۣ":1289,"ۤ":1290,"ۥ":1291,"ۦ":1292,"ۧ":1293,"ۨ":1294,"۩":1295,"۪":1296,"۫":1297,"۬":1298,"ۭ":1299,"ۮ":1300,"ۯ":1301,"۰":1302,"۱":1303,"۲":1304,"۳":1305,"۴":1306,"۵":1307,"۶":1308,"۷":1309,"۸":1310,"۹":1311,"ۺ":1312,"ۻ":1313,"ۼ":1314,"۽":1315,"۾":1316,"ۿ":1317,"܀":1318,"ܐ":1319,"ܒ":1320,"ܓ":1321,"ܕ":1322,"ܖ":1323,"ܗ":1324,"ܘ":1325,"ܙ":1326,"ܚ":1327,"ܛ":1328,"ܝ":1329,"ܟ":1330,"ܠ":1331,"ܡ":1332,"ܢ":1333,"ܣ":1334,"ܤ":1335,"ܥ":1336,"ܦ":1337,"ܨ":1338,"ܩ":1339,"ܪ":1340,"ܫ":1341,"ܬ":1342,"ܰ":1343,"ܱ":1344,"ܳ":1345,"ܵ":1346,"ܶ":1347,"ܺ":1348,"ܼ":1349,"ܽ":1350,"ܿ":1351,"ݣ":1352,"ݾ":1353,"ށ":1354,"ނ":1355,"ޅ":1356,"އ":1357,"ދ":1358,"ތ":1359,"ަ":1360,"ި":1361,"ު":1362,"ޮ":1363,"ޯ":1364,"ँ":1365,"ं":1366,"ः":1367,"ऄ":1368,"अ":1369,"आ":1370,"इ":1371,"ई":1372,"उ":1373,"ऊ":1374,"ऋ":1375,"ऌ":1376,"ऍ":1377,"ऎ":1378,"ए":1379,"ऐ":1380,"ऑ":1381,"ऒ":1382,"ओ":1383,"औ":1384,"क":1385,"ख":1386,"ग":1387,"घ":1388,"ङ":1389,"च":1390,"छ":1391,"ज":1392,"झ":1393,"ञ":1394,"ट":1395,"ठ":1396,"ड":1397,"ढ":1398,"ण":1399,"त":1400,"थ":1401,"द":1402,"ध":1403,"न":1404,"ऩ":1405,"प":1406,"फ":1407,"ब":1408,"भ":1409,"म":1410,"य":1411,"र":1412,"ऱ":1413,"ल":1414,"ळ":1415,"ऴ":1416,"व":1417,"श":1418,"ष":1419,"स":1420,"ह":1421,"़":1422,"ऽ":1423,"ा":1424,"ि":1425,"ी":1426,"ु":1427,"ू":1428,"ृ":1429,"ॄ":1430,"ॅ":1431,"ॆ":1432,"े":1433,"ै":1434,"ॉ":1435,"ॊ":1436,"ो":1437,"ौ":1438,"्":1439,"ॐ":1440,"॑":1441,"॒":1442,"॓":1443,"॔":1444,"ॠ":1445,"ॡ":1446,"ॢ":1447,"ॣ":1448,"।":1449,"॥":1450,"०":1451,"१":1452,"२":1453,"३":1454,"४":1455,"५":1456,"६":1457,"७":1458,"८":1459,"९":1460,"॰":1461,"ॲ":1462,"ॽ":1463,"ঁ":1464,"ং":1465,"ঃ":1466,"অ":1467,"আ":1468,"ই":1469,"ঈ":1470,"উ":1471,"ঊ":1472,"ঋ":1473,"ঌ":1474,"এ":1475,"ঐ":1476,"ও":1477,"ঔ":1478,"ক":1479,"খ":1480,"গ":1481,"ঘ":1482,"ঙ":1483,"চ":1484,"ছ":1485,"জ":1486,"ঝ":1487,"ঞ":1488,"ট":1489,"ঠ":1490,"ড":1491,"ঢ":1492,"ণ":1493,"ত":1494,"থ":1495,"দ":1496,"ধ":1497,"ন":1498,"প":1499,"ফ":1500,"ব":1501,"ভ":1502,"ম":1503,"য":1504,"র":1505,"ল":1506,"শ":1507,"ষ":1508,"স":1509,"হ":1510,"়":1511,"ঽ":1512,"া":1513,"ি":1514,"ী":1515,"ু":1516,"ূ":1517,"ৃ":1518,"ৄ":1519,"ে":1520,"ৈ":1521,"ো":1522,"ৌ":1523,"্":1524,"ৎ":1525,"ৗ":1526,"ৠ":1527,"ৡ":1528,"ৢ":1529,"ৣ":1530,"০":1531,"১":1532,"২":1533,"৩":1534,"৪":1535,"৫":1536,"৬":1537,"৭":1538,"৮":1539,"৯":1540,"ৰ":1541,"ৱ":1542,"৲":1543,"৳":1544,"৴":1545,"৵":1546,"৶":1547,"৷":1548,"৸":1549,"৹":1550,"৺":1551,"ਂ":1552,"ਃ":1553,"ਅ":1554,"ਓ":1555,"ਕ":1556,"ਖ":1557,"ਗ":1558,"ਘ":1559,"ਚ":1560,"ਜ":1561,"ਟ":1562,"ਡ":1563,"ਢ":1564,"ਤ":1565,"ਦ":1566,"ਨ":1567,"ਫ":1568,"ਭ":1569,"ਮ":1570,"ਰ":1571,"ਲ":1572,"ਵ":1573,"ਸ":1574,"ਹ":1575,"਼":1576,"ਾ":1577,"ਿ":1578,"ੀ":1579,"ੁ":1580,"ੂ":1581,"ੇ":1582,"ੈ":1583,"ੋ":1584,"ੌ":1585,"੍":1586,"ੜ":1587,"ੰ":1588,"ੱ":1589,"ੲ":1590,"ੳ":1591,"ੴ":1592,"ઁ":1593,"ં":1594,"અ":1595,"આ":1596,"ઇ":1597,"ઈ":1598,"ઉ":1599,"ઊ":1600,"ઋ":1601,"એ":1602,"ઐ":1603,"ઓ":1604,"ઔ":1605,"ક":1606,"ખ":1607,"ગ":1608,"ઘ":1609,"ઙ":1610,"ચ":1611,"છ":1612,"જ":1613,"ઝ":1614,"ઞ":1615,"ટ":1616,"ઠ":1617,"ડ":1618,"ઢ":1619,"ણ":1620,"ત":1621,"થ":1622,"દ":1623,"ધ":1624,"ન":1625,"પ":1626,"ફ":1627,"બ":1628,"ભ":1629,"મ":1630,"ય":1631,"ર":1632,"લ":1633,"ળ":1634,"વ":1635,"શ":1636,"ષ":1637,"સ":1638,"હ":1639,"઼":1640,"ા":1641,"િ":1642,"ી":1643,"ુ":1644,"ે":1645,"ો":1646,"્":1647,"ૐ":1648,"ଁ":1649,"କ":1650,"ଖ":1651,"ନ":1652,"ବ":1653,"ଭ":1654,"ର":1655,"ଳ":1656,"ଶ":1657,"ା":1658,"ୁ":1659,"େ":1660,"୍":1661,"ୱ":1662,"அ":1663,"ஆ":1664,"இ":1665,"உ":1666,"எ":1667,"ஏ":1668,"ஓ":1669,"க":1670,"ங":1671,"ச":1672,"ஜ":1673,"ஞ":1674,"ட":1675,"ண":1676,"த":1677,"ந":1678,"ன":1679,"ப":1680,"ம":1681,"ய":1682,"ர":1683,"ற":1684,"ல":1685,"ள":1686,"ழ":1687,"வ":1688,"ஶ":1689,"ஷ":1690,"ஸ":1691,"ஹ":1692,"ா":1693,"ி":1694,"ீ":1695,"ு":1696,"ூ":1697,"ே":1698,"ை":1699,"ொ":1700,"ோ":1701,"்":1702,"ఁ":1703,"ం":1704,"అ":1705,"ఎ":1706,"క":1707,"గ":1708,"డ":1709,"ద":1710,"ధ":1711,"న":1712,"ప":1713,"బ":1714,"మ":1715,"ర":1716,"ల":1717,"వ":1718,"శ":1719,"ా":1720,"ి":1721,"ీ":1722,"ు":1723,"ే":1724,"ో":1725,"్":1726,"౪":1727,"ಂ":1728,"ಅ":1729,"ಉ":1730,"ಎ":1731,"ಕ":1732,"ಖ":1733,"ಗ":1734,"ಜ":1735,"ಟ":1736,"ತ":1737,"ದ":1738,"ಧ":1739,"ನ":1740,"ಪ":1741,"ಬ":1742,"ಮ":1743,"ಯ":1744,"ರ":1745,"ಲ":1746,"ವ":1747,"ಷ":1748,"ಸ":1749,"ಹ":1750,"ಾ":1751,"ಿ":1752,"ೀ":1753,"ು":1754,"ೂ":1755,"ೆ":1756,"ೈ":1757,"್":1758,"೦":1759,"ം":1760,"അ":1761,"ഇ":1762,"ഉ":1763,"എ":1764,"ഐ":1765,"ഔ":1766,"ക":1767,"ങ":1768,"ച":1769,"ട":1770,"ണ":1771,"ത":1772,"ദ":1773,"ന":1774,"പ":1775,"ഭ":1776,"മ":1777,"യ":1778,"ര":1779,"റ":1780,"ല":1781,"ള":1782,"ഴ":1783,"വ":1784,"ശ":1785,"ഷ":1786,"സ":1787,"ഹ":1788,"ാ":1789,"ി":1790,"ീ":1791,"ു":1792,"ൂ":1793,"ൃ":1794,"േ":1795,"ൈ":1796,"ൊ":1797,"ോ":1798,"്":1799,"ං":1800,"ඈ":1801,"ක":1802,"ග":1803,"ණ":1804,"ත":1805,"ථ":1806,"න":1807,"ම":1808,"ය":1809,"ර":1810,"ල":1811,"ව":1812,"ශ":1813,"ස":1814,"හ":1815,"්":1816,"ා":1817,"ි":1818,"ී":1819,"ු":1820,"ේ":1821,"ෝ":1822,"ก":1823,"ข":1824,"ฃ":1825,"ค":1826,"ฅ":1827,"ฆ":1828,"ง":1829,"จ":1830,"ฉ":1831,"ช":1832,"ซ":1833,"ฌ":1834,"ญ":1835,"ฎ":1836,"ฏ":1837,"ฐ":1838,"ฑ":1839,"ฒ":1840,"ณ":1841,"ด":1842,"ต":1843,"ถ":1844,"ท":1845,"ธ":1846,"น":1847,"บ":1848,"ป":1849,"ผ":1850,"ฝ":1851,"พ":1852,"ฟ":1853,"ภ":1854,"ม":1855,"ย":1856,"ร":1857,"ฤ":1858,"ล":1859,"ฦ":1860,"ว":1861,"ศ":1862,"ษ":1863,"ส":1864,"ห":1865,"ฬ":1866,"อ":1867,"ฮ":1868,"ฯ":1869,"ะ":1870,"ั":1871,"า":1872,"ำ":1873,"ิ":1874,"ี":1875,"ึ":1876,"ื":1877,"ุ":1878,"ู":1879,"ฺ":1880,"฿":1881,"เ":1882,"แ":1883,"โ":1884,"ใ":1885,"ไ":1886,"ๅ":1887,"ๆ":1888,"็":1889,"่":1890,"้":1891,"๊":1892,"๋":1893,"์":1894,"ํ":1895,"๎":1896,"๏":1897,"๐":1898,"๑":1899,"๒":1900,"๓":1901,"๔":1902,"๕":1903,"๖":1904,"๗":1905,"๘":1906,"๙":1907,"๚":1908,"๛":1909,"ກ":1910,"ຂ":1911,"ຄ":1912,"ງ":1913,"ຈ":1914,"ຊ":1915,"ຍ":1916,"ດ":1917,"ຕ":1918,"ຖ":1919,"ທ":1920,"ນ":1921,"ບ":1922,"ປ":1923,"ຜ":1924,"ພ":1925,"ມ":1926,"ຣ":1927,"ລ":1928,"ວ":1929,"ສ":1930,"ຫ":1931,"ອ":1932,"ຮ":1933,"ະ":1934,"ັ":1935,"າ":1936,"ຳ":1937,"ິ":1938,"ີ":1939,"ື":1940,"ຸ":1941,"ູ":1942,"ົ":1943,"ຽ":1944,"ເ":1945,"ແ":1946,"ໃ":1947,"ໄ":1948,"່":1949,"້":1950,"ໍ":1951,"ໜ":1952,"ໝ":1953,"ༀ":1954,"་":1955,"།":1956,"ཁ":1957,"ག":1958,"ང":1959,"ཆ":1960,"ཇ":1961,"ཏ":1962,"ཐ":1963,"ད":1964,"ན":1965,"པ":1966,"ཕ":1967,"བ":1968,"མ":1969,"ཙ":1970,"ཚ":1971,"ཛ":1972,"ཞ":1973,"འ":1974,"ཡ":1975,"ར":1976,"ལ":1977,"ས":1978,"ཱ":1979,"ི":1980,"ུ":1981,"ེ":1982,"ོ":1983,"ྐ":1984,"ྒ":1985,"ྔ":1986,"ྗ":1987,"ྟ":1988,"ྫ":1989,"ྱ":1990,"ྲ":1991,"ླ":1992,"ྷ":1993,"က":1994,"ခ":1995,"ဂ":1996,"င":1997,"စ":1998,"ဆ":1999,"ဇ":2000,"ဈ":2001,"ဉ":2002,"ည":2003,"တ":2004,"ထ":2005,"ဒ":2006,"န":2007,"ပ":2008,"ဖ":2009,"ဗ":2010,"ဘ":2011,"မ":2012,"ယ":2013,"ရ":2014,"လ":2015,"သ":2016,"ဟ":2017,"အ":2018,"ဦ":2019,"ါ":2020,"ာ":2021,"ိ":2022,"ီ":2023,"ု":2024,"ူ":2025,"ေ":2026,"ဲ":2027,"ံ":2028,"့":2029,"း":2030,"္":2031,"်":2032,"ျ":2033,"ြ":2034,"ွ":2035,"ှ":2036,"၊":2037,"ა":2038,"ბ":2039,"გ":2040,"დ":2041,"ე":2042,"ვ":2043,"ზ":2044,"თ":2045,"ი":2046,"კ":2047,"ლ":2048,"მ":2049,"ნ":2050,"ო":2051,"პ":2052,"ჟ":2053,"რ":2054,"ს":2055,"ტ":2056,"უ":2057,"ფ":2058,"ქ":2059,"ღ":2060,"ყ":2061,"შ":2062,"ჩ":2063,"ც":2064,"ძ":2065,"წ":2066,"ჭ":2067,"ხ":2068,"ჯ":2069,"ᇁ":2070,"ሀ":2071,"ሂ":2072,"ሃ":2073,"ሄ":2074,"ህ":2075,"ለ":2076,"ሊ":2077,"ላ":2078,"ሌ":2079,"ል":2080,"ሐ":2081,"ሔ":2082,"ሕ":2083,"መ":2084,"ሙ":2085,"ሚ":2086,"ማ":2087,"ም":2088,"ሞ":2089,"ሠ":2090,"ሡ":2091,"ሣ":2092,"ሥ":2093,"ረ":2094,"ሪ":2095,"ራ":2096,"ሬ":2097,"ር":2098,"ሮ":2099,"ሰ":2100,"ሱ":2101,"ሲ":2102,"ሳ":2103,"ሴ":2104,"ስ":2105,"ሻ":2106,"ሽ":2107,"ቀ":2108,"ቁ":2109,"ቂ":2110,"ቃ":2111,"ቄ":2112,"ቅ":2113,"ቆ":2114,"ቈ":2115,"ቕ":2116,"በ":2117,"ቡ":2118,"ቢ":2119,"ባ":2120,"ቤ":2121,"ብ":2122,"ተ":2123,"ቱ":2124,"ቲ":2125,"ታ":2126,"ት":2127,"ኀ":2128,"ነ":2129,"ኒ":2130,"ና":2131,"ኔ":2132,"ን":2133,"ኖ":2134,"ኘ":2135,"ኛ":2136,"አ":2137,"ኢ":2138,"ኣ":2139,"ኤ":2140,"እ":2141,"ከ":2142,"ካ":2143,"ክ":2144,"ኰ":2145,"ወ":2146,"ዊ":2147,"ው":2148,"ዐ":2149,"ዓ":2150,"ዕ":2151,"ዘ":2152,"ዚ":2153,"ዝ":2154,"የ":2155,"ያ":2156,"ይ":2157,"ዮ":2158,"ደ":2159,"ዳ":2160,"ድ":2161,"ጀ":2162,"ጅ":2163,"ገ":2164,"ጉ":2165,"ጊ":2166,"ጋ":2167,"ጌ":2168,"ግ":2169,"ጠ":2170,"ጣ":2171,"ጥ":2172,"ጨ":2173,"ጫ":2174,"ጰ":2175,"ጵ":2176,"ጸ":2177,"ጽ":2178,"ፈ":2179,"ፊ":2180,"ፋ":2181,"ፍ":2182,"ፐ":2183,"ፖ":2184,"፡":2185,"Ꭰ":2186,"Ꭱ":2187,"Ꭲ":2188,"Ꭳ":2189,"Ꭴ":2190,"Ꭵ":2191,"Ꭶ":2192,"Ꭷ":2193,"Ꭸ":2194,"Ꭹ":2195,"Ꭺ":2196,"Ꭻ":2197,"Ꭼ":2198,"Ꭽ":2199,"Ꭾ":2200,"Ꭿ":2201,"Ꮀ":2202,"Ꮁ":2203,"Ꮂ":2204,"Ꮃ":2205,"Ꮄ":2206,"Ꮅ":2207,"Ꮆ":2208,"Ꮇ":2209,"Ꮈ":2210,"Ꮉ":2211,"Ꮊ":2212,"Ꮋ":2213,"Ꮌ":2214,"Ꮍ":2215,"Ꮎ":2216,"Ꮏ":2217,"Ꮐ":2218,"Ꮑ":2219,"Ꮒ":2220,"Ꮓ":2221,"Ꮔ":2222,"Ꮕ":2223,"Ꮖ":2224,"Ꮗ":2225,"Ꮘ":2226,"Ꮙ":2227,"Ꮚ":2228,"Ꮛ":2229,"Ꮜ":2230,"Ꮝ":2231,"Ꮞ":2232,"Ꮟ":2233,"Ꮠ":2234,"Ꮡ":2235,"Ꮢ":2236,"Ꮣ":2237,"Ꮤ":2238,"Ꮥ":2239,"Ꮦ":2240,"Ꮧ":2241,"Ꮨ":2242,"Ꮩ":2243,"Ꮪ":2244,"Ꮫ":2245,"Ꮬ":2246,"Ꮭ":2247,"Ꮮ":2248,"Ꮯ":2249,"Ꮰ":2250,"Ꮱ":2251,"Ꮲ":2252,"Ꮳ":2253,"Ꮴ":2254,"Ꮵ":2255,"Ꮶ":2256,"Ꮷ":2257,"Ꮸ":2258,"Ꮹ":2259,"Ꮺ":2260,"Ꮻ":2261,"Ꮼ":2262,"Ꮽ":2263,"Ꮾ":2264,"Ꮿ":2265,"Ᏸ":2266,"Ᏹ":2267,"Ᏺ":2268,"Ᏻ":2269,"Ᏼ":2270,"ᐃ":2271,"ᐅ":2272,"ᐊ":2273,"ᐎ":2274,"ᐦ":2275,"ᐯ":2276,"ᐱ":2277,"ᐳ":2278,"ᐸ":2279,"ᐹ":2280,"ᑎ":2281,"ᑐ":2282,"ᑕ":2283,"ᑦ":2284,"ᑭ":2285,"ᑯ":2286,"ᑰ":2287,"ᑲ":2288,"ᒃ":2289,"ᒋ":2290,"ᒡ":2291,"ᒣ":2292,"ᒥ":2293,"ᒧ":2294,"ᓂ":2295,"ᓄ":2296,"ᓅ":2297,"ᓇ":2298,"ᓈ":2299,"ᓐ":2300,"ᓕ":2301,"ᓗ":2302,"ᓚ":2303,"ᓛ":2304,"ᓪ":2305,"ᓯ":2306,"ᓱ":2307,"ᓲ":2308,"ᓴ":2309,"ᔑ":2310,"ᔨ":2311,"ᔪ":2312,"ᔭ":2313,"ᔾ":2314,"ᕆ":2315,"ᕌ":2316,"ᕐ":2317,"ᕕ":2318,"ᕼ":2319,"ᕿ":2320,"ᖁ":2321,"ᖃ":2322,"ᖅ":2323,"ᖏ":2324,"ᖓ":2325,"ᚠ":2326,"ᚢ":2327,"ᚣ":2328,"ᚦ":2329,"ᚨ":2330,"ᚫ":2331,"ᚱ":2332,"ᚲ":2333,"ᚴ":2334,"ᚷ":2335,"ᚹ":2336,"ᚺ":2337,"ᚼ":2338,"ᚾ":2339,"ᛁ":2340,"ᛅ":2341,"ᛇ":2342,"ᛈ":2343,"ᛉ":2344,"ᛊ":2345,"ᛋ":2346,"ᛏ":2347,"ᛐ":2348,"ᛒ":2349,"ᛖ":2350,"ᛗ":2351,"ᛘ":2352,"ᛚ":2353,"ᛞ":2354,"ᛟ":2355,"ᛦ":2356,"᛫":2357,"᛬":2358,"ᜃ":2359,"ᜣ":2360,"ᝃ":2361,"ᝣ":2362,"ក":2363,"ខ":2364,"គ":2365,"ឃ":2366,"ង":2367,"ច":2368,"ជ":2369,"ឈ":2370,"ញ":2371,"ដ":2372,"ឌ":2373,"ណ":2374,"ត":2375,"ថ":2376,"ទ":2377,"ធ":2378,"ន":2379,"ប":2380,"ផ":2381,"ព":2382,"ភ":2383,"ម":2384,"យ":2385,"រ":2386,"ល":2387,"វ":2388,"ស":2389,"ហ":2390,"ឡ":2391,"អ":2392,"ឥ":2393,"ា":2394,"ិ":2395,"ី":2396,"ឹ":2397,"ឺ":2398,"ុ":2399,"ូ":2400,"ួ":2401,"ើ":2402,"ឿ":2403,"ៀ":2404,"េ":2405,"ែ":2406,"ៃ":2407,"ោ":2408,"ៅ":2409,"ំ":2410,"ៈ":2411,"៉":2412,"៊":2413,"់":2414,"័":2415,"្":2416,"១":2417,"២":2418,"ᠠ":2419,"ᠨ":2420,"ᠯ":2421,"ᠰ":2422,"ᠶ":2423,"ᡠ":2424,"ᡥ":2425,"ᡳ":2426,"ᤁ":2427,"ᦂ":2428,"ᦃ":2429,"ᦄ":2430,"ᦅ":2431,"ᦆ":2432,"ᦇ":2433,"ᦈ":2434,"ᦉ":2435,"ᦋ":2436,"ᦑ":2437,"ᦓ":2438,"ᦗ":2439,"ᦘ":2440,"ᦱ":2441,"ᦲ":2442,"ᦵ":2443,"ᦹ":2444,"ᦺ":2445,"ᧁ":2446,"ᧃ":2447,"ᧈ":2448,"᧑":2449,"᧒":2450,"ᨀ":2451,"ᬂ":2452,"ᬆ":2453,"ᬓ":2454,"ᬕ":2455,"ᬦ":2456,"ᬩ":2457,"ᬮ":2458,"ᬶ":2459,"ᬸ":2460,"ᱛ":2461,"ᱜ":2462,"ᱠ":2463,"ᱡ":2464,"ᱪ":2465,"ᱫ":2466,"ᱯ":2467,"ᱰ":2468,"ᱲ":2469,"ᱴ":2470,"ᱵ":2471,"ᱷ":2472,"ᴀ":2473,"ᴄ":2474,"ᴇ":2475,"ᴐ":2476,"ᵉ":2477,"ᵊ":2478,"ᵍ":2479,"ᵐ":2480,"ᵑ":2481,"ᵛ":2482,"ᵫ":2483,"ᵬ":2484,"ᵭ":2485,"ᵮ":2486,"ᵯ":2487,"ᵰ":2488,"ᵱ":2489,"ᵲ":2490,"ᵳ":2491,"ᵴ":2492,"ᵵ":2493,"ᵶ":2494,"ᵹ":2495,"ᶇ":2496,"᷆":2497,"ḃ":2498,"ḅ":2499,"ḇ":2500,"Ḍ":2501,"ḍ":2502,"Ḏ":2503,"ḏ":2504,"Ḑ":2505,"ḑ":2506,"ḓ":2507,"ḕ":2508,"ḗ":2509,"ḛ":2510,"ḟ":2511,"Ḡ":2512,"ḡ":2513,"ḣ":2514,"Ḥ":2515,"ḥ":2516,"Ḧ":2517,"ḧ":2518,"Ḩ":2519,"ḩ":2520,"Ḫ":2521,"ḫ":2522,"ḭ":2523,"ḯ":2524,"Ḱ":2525,"ḱ":2526,"Ḳ":2527,"ḳ":2528,"Ḵ":2529,"ḵ":2530,"Ḷ":2531,"ḷ":2532,"ḹ":2533,"ḻ":2534,"ḿ":2535,"Ṁ":2536,"ṁ":2537,"Ṃ":2538,"ṃ":2539,"ṅ":2540,"Ṇ":2541,"ṇ":2542,"ṉ":2543,"ṓ":2544,"ṙ":2545,"Ṛ":2546,"ṛ":2547,"Ṝ":2548,"ṝ":2549,"ṟ":2550,"ṡ":2551,"Ṣ":2552,"ṣ":2553,"ṧ":2554,"Ṩ":2555,"ṫ":2556,"Ṭ":2557,"ṭ":2558,"Ṯ":2559,"ṯ":2560,"ṱ":2561,"ṳ":2562,"ṵ":2563,"ṷ":2564,"Ṽ":2565,"ṽ":2566,"Ṿ":2567,"ṿ":2568,"Ẁ":2569,"ẁ":2570,"ẅ":2571,"Ẏ":2572,"ẏ":2573,"ẑ":2574,"Ẓ":2575,"ẓ":2576,"ẖ":2577,"ẗ":2578,"ẞ":2579,"ẟ":2580,"Ạ":2581,"ạ":2582,"ả":2583,"Ấ":2584,"ấ":2585,"ầ":2586,"ẩ":2587,"ẫ":2588,"ậ":2589,"ắ":2590,"ằ":2591,"ẵ":2592,"ặ":2593,"Ẹ":2594,"ẹ":2595,"Ẻ":2596,"ẻ":2597,"ẽ":2598,"ế":2599,"ề":2600,"ể":2601,"Ễ":2602,"ễ":2603,"ệ":2604,"Ỉ":2605,"ỉ":2606,"ị":2607,"Ọ":2608,"ọ":2609,"ỏ":2610,"Ố":2611,"ố":2612,"ồ":2613,"ổ":2614,"ỗ":2615,"ộ":2616,"Ớ":2617,"ớ":2618,"ờ":2619,"Ở":2620,"ở":2621,"ợ":2622,"ụ":2623,"ủ":2624,"Ứ":2625,"ứ":2626,"ừ":2627,"ử":2628,"ữ":2629,"ự":2630,"ỳ":2631,"ỷ":2632,"Ỹ":2633,"ỹ":2634,"ἀ":2635,"ἁ":2636,"ἂ":2637,"ἄ":2638,"ἅ":2639,"ἆ":2640,"ἇ":2641,"Ἀ":2642,"Ἁ":2643,"Ἄ":2644,"Ἅ":2645,"Ἆ":2646,"ἐ":2647,"ἑ":2648,"ἒ":2649,"ἔ":2650,"ἕ":2651,"Ἐ":2652,"Ἑ":2653,"Ἓ":2654,"Ἔ":2655,"Ἕ":2656,"ἠ":2657,"ἡ":2658,"ἢ":2659,"ἣ":2660,"ἤ":2661,"ἥ":2662,"ἦ":2663,"ἧ":2664,"Ἠ":2665,"Ἡ":2666,"Ἥ":2667,"ἰ":2668,"ἱ":2669,"ἴ":2670,"ἵ":2671,"ἶ":2672,"ἷ":2673,"Ἰ":2674,"Ἱ":2675,"ὀ":2676,"ὁ":2677,"ὂ":2678,"ὃ":2679,"ὄ":2680,"ὅ":2681,"Ὀ":2682,"Ὁ":2683,"Ὃ":2684,"Ὄ":2685,"ὐ":2686,"ὑ":2687,"ὓ":2688,"ὔ":2689,"ὕ":2690,"ὖ":2691,"ὗ":2692,"Ὑ":2693,"Ὕ":2694,"ὠ":2695,"ὡ":2696,"ὣ":2697,"ὤ":2698,"ὥ":2699,"ὦ":2700,"ὧ":2701,"Ὠ":2702,"Ὡ":2703,"Ὦ":2704,"ὰ":2705,"ὲ":2706,"ὴ":2707,"ὶ":2708,"ὸ":2709,"ὺ":2710,"ὼ":2711,"ᾍ":2712,"ᾠ":2713,"ᾧ":2714,"ᾰ":2715,"ᾱ":2716,"ᾳ":2717,"ᾶ":2718,"Ᾰ":2719,"Ᾱ":2720,"᾽":2721,"᾿":2722,"ῃ":2723,"ῆ":2724,"ῇ":2725,"῎":2726,"ῑ":2727,"ῖ":2728,"Ὶ":2729,"ῠ":2730,"ῡ":2731,"ῤ":2732,"ῥ":2733,"ῦ":2734,"Ῥ":2735,"ῳ":2736,"ῴ":2737,"ῶ":2738,"ῷ":2739,"῾":2740,"‌":2741,"‍":2742,"‎":2743,"‐":2744,"‑":2745,"‒":2746,"–":2747,"—":2748,"―":2749,"‖":2750,"‘":2751,"’":2752,"‚":2753,"‛":2754,"“":2755,"”":2756,"„":2757,"‟":2758,"†":2759,"‡":2760,"•":2761,"․":2762,"…":2763,"‧":2764,"‰":2765,"‱":2766,"′":2767,"″":2768,"‴":2769,"‸":2770,"‹":2771,"›":2772,"※":2773,"‼":2774,"‽":2775,"‾":2776,"‿":2777,"⁁":2778,"⁂":2779,"⁄":2780,"⁇":2781,"⁈":2782,"⁉":2783,"⁊":2784,"⁋":2785,"⁕":2786,"⁠":2787,"⁰":2788,"⁴":2789,"⁵":2790,"⁶":2791,"⁷":2792,"⁸":2793,"⁹":2794,"⁺":2795,"⁻":2796,"ⁿ":2797,"₀":2798,"₁":2799,"₂":2800,"₃":2801,"₄":2802,"₅":2803,"₆":2804,"₈":2805,"₉":2806,"₠":2807,"₡":2808,"₣":2809,"₤":2810,"₥":2811,"₦":2812,"₧":2813,"₨":2814,"₩":2815,"₪":2816,"₫":2817,"€":2818,"₭":2819,"₯":2820,"₱":2821,"₲":2822,"₶":2823,"₸":2824,"₹":2825,"₺":2826,"⃗":2827,"⃦":2828,"ℂ":2829,"℃":2830,"℅":2831,"℉":2832,"ℋ":2833,"ℍ":2834,"ℎ":2835,"ℏ":2836,"ℒ":2837,"ℓ":2838,"℔":2839,"ℕ":2840,"№":2841,"℗":2842,"℘":2843,"ℙ":2844,"ℚ":2845,"ℛ":2846,"ℝ":2847,"℟":2848,"™":2849,"℣":2850,"ℤ":2851,"℥":2852,"℧":2853,"℩":2854,"ℬ":2855,"℮":2856,"ℰ":2857,"ℱ":2858,"Ⅎ":2859,"ℳ":2860,"ℵ":2861,"ⅎ":2862,"⅓":2863,"⅔":2864,"⅛":2865,"⅜":2866,"⅞":2867,"Ⅰ":2868,"Ⅱ":2869,"Ⅲ":2870,"Ⅵ":2871,"Ⅶ":2872,"Ⅽ":2873,"Ⅿ":2874,"ⅽ":2875,"ⅿ":2876,"ↀ":2877,"ↁ":2878,"ↂ":2879,"Ↄ":2880,"ↄ":2881,"↊":2882,"↋":2883,"←":2884,"↑":2885,"→":2886,"↓":2887,"↔":2888,"↗":2889,"↘":2890,"↦":2891,"↨":2892,"↲":2893,"↵":2894,"↺":2895,"⇄":2896,"⇆":2897,"⇋":2898,"⇌":2899,"⇐":2900,"⇒":2901,"⇔":2902,"⇧":2903,"∀":2904,"∂":2905,"∃":2906,"∅":2907,"∆":2908,"∇":2909,"∈":2910,"∉":2911,"∊":2912,"∎":2913,"∏":2914,"∑":2915,"−":2916,"∓":2917,"∕":2918,"∖":2919,"∗":2920,"∘":2921,"∙":2922,"√":2923,"∝":2924,"∞":2925,"∥":2926,"∧":2927,"∨":2928,"∩":2929,"∪":2930,"∫":2931,"∮":2932,"∴":2933,"∸":2934,"∼":2935,"≃":2936,"≅":2937,"≈":2938,"≐":2939,"≠":2940,"≡":2941,"≢":2942,"≤":2943,"≥":2944,"≪":2945,"≫":2946,"≺":2947,"≻":2948,"≼":2949,"⊂":2950,"⊃":2951,"⊄":2952,"⊆":2953,"⊇":2954,"⊈":2955,"⊊":2956,"⊋":2957,"⊍":2958,"⊑":2959,"⊔":2960,"⊕":2961,"⊖":2962,"⊗":2963,"⊙":2964,"⊢":2965,"⊤":2966,"⊥":2967,"⊦":2968,"⊨":2969,"⊬":2970,"⊰":2971,"⊱":2972,"⋀":2973,"⋁":2974,"⋂":2975,"⋃":2976,"⋅":2977,"⋈":2978,"⋉":2979,"⋊":2980,"⋔":2981,"⋮":2982,"⋯":2983,"⌀":2984,"⌃":2985,"⌈":2986,"⌉":2987,"⌊":2988,"⌋":2989,"⌨":2990,"⌬":2991,"⌹":2992,"⍋":2993,"⍎":2994,"⍒":2995,"⍦":2996,"⍳":2997,"⍴":2998,"⍵":2999,"⍺":3000,"⍽":3001,"⎈":3002,"⎕":3003,"⎢":3004,"␣":3005,"①":3006,"②":3007,"③":3008,"④":3009,"⑤":3010,"⑥":3011,"⑦":3012,"⑧":3013,"⑨":3014,"Ⓐ":3015,"Ⓔ":3016,"Ⓛ":3017,"Ⓜ":3018,"Ⓧ":3019,"Ⓨ":3020,"ⓔ":3021,"⓪":3022,"─":3023,"│":3024,"┌":3025,"┐":3026,"└":3027,"┘":3028,"├":3029,"┤":3030,"┬":3031,"┴":3032,"┼":3033,"═":3034,"║":3035,"╔":3036,"╗":3037,"╞":3038,"╡":3039,"╦":3040,"╱":3041,"╲":3042,"▀":3043,"▄":3044,"█":3045,"░":3046,"▓":3047,"■":3048,"□":3049,"▪":3050,"▲":3051,"►":3052,"▼":3053,"▽":3054,"◄":3055,"◇":3056,"◊":3057,"○":3058,"◌":3059,"●":3060,"◒":3061,"◻":3062,"◼":3063,"◾":3064,"☀":3065,"☄":3066,"★":3067,"☆":3068,"☉":3069,"☊":3070,"☋":3071,"☌":3072,"☍":3073,"☑":3074,"☓":3075,"☞":3076,"☠":3077,"☢":3078,"☥":3079,"☧":3080,"☨":3081,"☩":3082,"☭":3083,"☮":3084,"☯":3085,"☰":3086,"☱":3087,"☲":3088,"☳":3089,"☴":3090,"☵":3091,"☶":3092,"☷":3093,"☽":3094,"☾":3095,"☿":3096,"♀":3097,"♁":3098,"♂":3099,"♃":3100,"♄":3101,"♅":3102,"♆":3103,"♇":3104,"♈":3105,"♉":3106,"♊":3107,"♋":3108,"♌":3109,"♍":3110,"♎":3111,"♏":3112,"♐":3113,"♑":3114,"♒":3115,"♓":3116,"♔":3117,"♕":3118,"♖":3119,"♗":3120,"♘":3121,"♙":3122,"♚":3123,"♛":3124,"♜":3125,"♝":3126,"♞":3127,"♟":3128,"♠":3129,"♡":3130,"♣":3131,"♥":3132,"♦":3133,"♧":3134,"♨":3135,"♩":3136,"♪":3137,"♫":3138,"♬":3139,"♭":3140,"♮":3141,"♯":3142,"♰":3143,"⚭":3144,"⚶":3145,"⛢":3146,"✓":3147,"✔":3148,"✝":3149,"✞":3150,"✟":3151,"✠":3152,"✡":3153,"✮":3154,"✲":3155,"✶":3156,"✸":3157,"✻":3158,"❡":3159,"❤":3160,"❰":3161,"❱":3162,"❷":3163,"❸":3164,"❹":3165,"❺":3166,"❼":3167,"➜":3168,"➝":3169,"⟦":3170,"⟧":3171,"⟨":3172,"⟩":3173,"⟵":3174,"⟶":3175,"⟷":3176,"⟺":3177,"⨆":3178,"⩽":3179,"⩾":3180,"⪢":3181,"⫼":3182,"⬜":3183,"Ⱌ":3184,"ⱌ":3185,"Ɽ":3186,"Ɑ":3187,"Ɐ":3188,"Ɒ":3189,"ⱱ":3190,"Ⱶ":3191,"Ⲁ":3192,"ⲁ":3193,"ⲃ":3194,"Ⲅ":3195,"ⲅ":3196,"Ⲇ":3197,"ⲇ":3198,"Ⲉ":3199,"ⲉ":3200,"Ⲋ":3201,"ⲋ":3202,"Ⲏ":3203,"ⲏ":3204,"Ⲑ":3205,"ⲑ":3206,"Ⲓ":3207,"ⲓ":3208,"Ⲕ":3209,"ⲕ":3210,"Ⲗ":3211,"ⲗ":3212,"Ⲙ":3213,"ⲙ":3214,"Ⲛ":3215,"ⲛ":3216,"Ⲝ":3217,"Ⲟ":3218,"ⲟ":3219,"Ⲡ":3220,"ⲡ":3221,"Ⲣ":3222,"ⲣ":3223,"Ⲥ":3224,"ⲥ":3225,"Ⲧ":3226,"ⲧ":3227,"Ⲩ":3228,"ⲩ":3229,"Ⲫ":3230,"ⲫ":3231,"Ⲭ":3232,"ⲭ":3233,"Ⲯ":3234,"Ⲱ":3235,"ⲱ":3236,"ⳟ":3237,"ⳡ":3238,"ⳣ":3239,"⳱":3240,"ⴰ":3241,"ⴱ":3242,"ⴲ":3243,"ⴳ":3244,"ⴴ":3245,"ⴵ":3246,"ⴷ":3247,"ⴸ":3248,"ⴹ":3249,"ⴻ":3250,"ⴼ":3251,"ⴽ":3252,"ⴾ":3253,"ⵀ":3254,"ⵁ":3255,"ⵂ":3256,"ⵃ":3257,"ⵄ":3258,"ⵅ":3259,"ⵇ":3260,"ⵈ":3261,"ⵉ":3262,"ⵊ":3263,"ⵍ":3264,"ⵎ":3265,"ⵏ":3266,"ⵓ":3267,"ⵔ":3268,"ⵕ":3269,"ⵖ":3270,"ⵗ":3271,"ⵙ":3272,"ⵚ":3273,"ⵛ":3274,"ⵜ":3275,"ⵝ":3276,"ⵞ":3277,"ⵟ":3278,"ⵡ":3279,"ⵢ":3280,"ⵣ":3281,"ⵥ":3282,"ⵯ":3283,"⸓":3284,"⸗":3285,"⸮":3286,"⸿":3287,"、":3288,"。":3289,"〃":3290,"〄":3291,"々":3292,"〆":3293,"〇":3294,"〈":3295,"〉":3296,"《":3297,"》":3298,"「":3299,"」":3300,"『":3301,"』":3302,"【":3303,"】":3304,"〒":3305,"〓":3306,"〔":3307,"〕":3308,"〖":3309,"〗":3310,"〘":3311,"〙":3312,"〚":3313,"〛":3314,"〜":3315,"〠":3316,"〱":3317,"〲":3318,"〳":3319,"〴":3320,"〵":3321,"〶":3322,"〽":3323,"ぁ":3324,"あ":3325,"ぃ":3326,"い":3327,"ぅ":3328,"う":3329,"ぇ":3330,"え":3331,"ぉ":3332,"お":3333,"か":3334,"が":3335,"き":3336,"ぎ":3337,"く":3338,"ぐ":3339,"け":3340,"げ":3341,"こ":3342,"ご":3343,"さ":3344,"ざ":3345,"し":3346,"じ":3347,"す":3348,"ず":3349,"せ":3350,"ぜ":3351,"そ":3352,"ぞ":3353,"た":3354,"だ":3355,"ち":3356,"ぢ":3357,"っ":3358,"つ":3359,"づ":3360,"て":3361,"で":3362,"と":3363,"ど":3364,"な":3365,"に":3366,"ぬ":3367,"ね":3368,"の":3369,"は":3370,"ば":3371,"ぱ":3372,"ひ":3373,"び":3374,"ぴ":3375,"ふ":3376,"ぶ":3377,"ぷ":3378,"へ":3379,"べ":3380,"ぺ":3381,"ほ":3382,"ぼ":3383,"ぽ":3384,"ま":3385,"み":3386,"む":3387,"め":3388,"も":3389,"ゃ":3390,"や":3391,"ゅ":3392,"ゆ":3393,"ょ":3394,"よ":3395,"ら":3396,"り":3397,"る":3398,"れ":3399,"ろ":3400,"ゎ":3401,"わ":3402,"ゐ":3403,"ゑ":3404,"を":3405,"ん":3406,"ゔ":3407,"゛":3408,"゜":3409,"ゝ":3410,"ゞ":3411,"ァ":3412,"ア":3413,"ィ":3414,"イ":3415,"ゥ":3416,"ウ":3417,"ェ":3418,"エ":3419,"ォ":3420,"オ":3421,"カ":3422,"ガ":3423,"キ":3424,"ギ":3425,"ク":3426,"グ":3427,"ケ":3428,"ゲ":3429,"コ":3430,"ゴ":3431,"サ":3432,"ザ":3433,"シ":3434,"ジ":3435,"ス":3436,"ズ":3437,"セ":3438,"ゼ":3439,"ソ":3440,"ゾ":3441,"タ":3442,"ダ":3443,"チ":3444,"ヂ":3445,"ッ":3446,"ツ":3447,"ヅ":3448,"テ":3449,"デ":3450,"ト":3451,"ド":3452,"ナ":3453,"ニ":3454,"ヌ":3455,"ネ":3456,"ノ":3457,"ハ":3458,"バ":3459,"パ":3460,"ヒ":3461,"ビ":3462,"ピ":3463,"フ":3464,"ブ":3465,"プ":3466,"ヘ":3467,"ベ":3468,"ペ":3469,"ホ":3470,"ボ":3471,"ポ":3472,"マ":3473,"ミ":3474,"ム":3475,"メ":3476,"モ":3477,"ャ":3478,"ヤ":3479,"ュ":3480,"ユ":3481,"ョ":3482,"ヨ":3483,"ラ":3484,"リ":3485,"ル":3486,"レ":3487,"ロ":3488,"ヮ":3489,"ワ":3490,"ヰ":3491,"ヱ":3492,"ヲ":3493,"ン":3494,"ヴ":3495,"ヶ":3496,"・":3497,"ー":3498,"ヽ":3499,"ヾ":3500,"ㄅ":3501,"ㄆ":3502,"ㄇ":3503,"ㄈ":3504,"ㄌ":3505,"ㄓ":3506,"ㄔ":3507,"ㄕ":3508,"ㄖ":3509,"ㄗ":3510,"ㄘ":3511,"ㄙ":3512,"ㄚ":3513,"ㄛ":3514,"ㄜ":3515,"ㄝ":3516,"ㄟ":3517,"ㄡ":3518,"ㄢ":3519,"ㄣ":3520,"ㄤ":3521,"ㄥ":3522,"ㄦ":3523,"ㄧ":3524,"ㄨ":3525,"ㄩ":3526,"ㄱ":3527,"ㄴ":3528,"ㄷ":3529,"ㄹ":3530,"ㅁ":3531,"ㅂ":3532,"ㅅ":3533,"ㅆ":3534,"ㅇ":3535,"ㅈ":3536,"ㅊ":3537,"ㅍ":3538,"ㅎ":3539,"ㅏ":3540,"ㅔ":3541,"ㅗ":3542,"ㅜ":3543,"ㅠ":3544,"ㅡ":3545,"㎨":3546,"一":3547,"丁":3548,"丂":3549,"七":3550,"万":3551,"丈":3552,"三":3553,"上":3554,"下":3555,"不":3556,"与":3557,"丑":3558,"专":3559,"且":3560,"丕":3561,"世":3562,"丘":3563,"丙":3564,"业":3565,"东":3566,"丞":3567,"両":3568,"两":3569,"严":3570,"並":3571,"个":3572,"丫":3573,"中":3574,"丰":3575,"丶":3576,"丷":3577,"丸":3578,"丹":3579,"为":3580,"主":3581,"丼":3582,"丽":3583,"乃":3584,"久":3585,"义":3586,"之":3587,"乌":3588,"乏":3589,"乐":3590,"乒":3591,"乓":3592,"乔":3593,"乗":3594,"乘":3595,"乙":3596,"乜":3597,"九":3598,"乞":3599,"也":3600,"习":3601,"乡":3602,"书":3603,"买":3604,"乱":3605,"乳":3606,"乾":3607,"亀":3608,"亂":3609,"了":3610,"予":3611,"争":3612,"事":3613,"二":3614,"于":3615,"云":3616,"互":3617,"五":3618,"井":3619,"亘":3620,"亚":3621,"些":3622,"亜":3623,"亞":3624,"亠":3625,"亡":3626,"交":3627,"亥":3628,"亦":3629,"产":3630,"亨":3631,"享":3632,"京":3633,"亭":3634,"亮":3635,"亲":3636,"亳":3637,"亶":3638,"人":3639,"亻":3640,"亿":3641,"什":3642,"仁":3643,"仄":3644,"今":3645,"介":3646,"从":3647,"仏":3648,"仓":3649,"仔":3650,"仕":3651,"他":3652,"付":3653,"仙":3654,"仝":3655,"代":3656,"令":3657,"以":3658,"仨":3659,"仪":3660,"们":3661,"仮":3662,"仰":3663,"仲":3664,"件":3665,"价":3666,"任":3667,"份":3668,"企":3669,"伊":3670,"伋":3671,"伍":3672,"伎":3673,"伏":3674,"伐":3675,"休":3676,"优":3677,"会":3678,"伝":3679,"伟":3680,"传":3681,"伦":3682,"伯":3683,"伴":3684,"伸":3685,"伺":3686,"似":3687,"伽":3688,"但":3689,"位":3690,"低":3691,"住":3692,"佐":3693,"佑":3694,"体":3695,"何":3696,"佗":3697,"余":3698,"佛":3699,"作":3700,"佟":3701,"你":3702,"佤":3703,"佩":3704,"佯":3705,"佳":3706,"併":3707,"使":3708,"侃":3709,"來":3710,"例":3711,"侍":3712,"侖":3713,"供":3714,"依":3715,"侠":3716,"価":3717,"侨":3718,"侬":3719,"侮":3720,"侯":3721,"侵":3722,"侶":3723,"便":3724,"係":3725,"促":3726,"俊":3727,"俐":3728,"俑":3729,"俗":3730,"俚":3731,"保":3732,"俠":3733,"信":3734,"俣":3735,"修":3736,"俱":3737,"俳":3738,"俵":3739,"俺":3740,"倆":3741,"倉":3742,"個":3743,"倍":3744,"們":3745,"倒":3746,"候":3747,"倚":3748,"借":3749,"倣":3750,"値":3751,"倩":3752,"倪":3753,"倫":3754,"倭":3755,"倮":3756,"倹":3757,"偃":3758,"假":3759,"偈":3760,"偉":3761,"偏":3762,"做":3763,"停":3764,"健":3765,"側":3766,"偵":3767,"偶":3768,"偷":3769,"偽":3770,"傅":3771,"傈":3772,"傌":3773,"傍":3774,"傑":3775,"備":3776,"傣":3777,"催":3778,"傲":3779,"傳":3780,"債":3781,"傷":3782,"傻":3783,"傾":3784,"僊":3785,"働":3786,"像":3787,"僑":3788,"僕":3789,"僙":3790,"僚":3791,"僧":3792,"僮":3793,"僳":3794,"僵":3795,"儀":3796,"儂":3797,"億":3798,"儉":3799,"儒":3800,"償":3801,"優":3802,"儼":3803,"儿":3804,"允":3805,"元":3806,"兄":3807,"充":3808,"兆":3809,"先":3810,"光":3811,"克":3812,"兌":3813,"免":3814,"兎":3815,"児":3816,"兒":3817,"兔":3818,"兗":3819,"党":3820,"兜":3821,"入":3822,"內":3823,"全":3824,"兩":3825,"八":3826,"公":3827,"六":3828,"兰":3829,"共":3830,"关":3831,"兴":3832,"兵":3833,"其":3834,"具":3835,"典":3836,"兹":3837,"养":3838,"兼":3839,"冀":3840,"冂":3841,"内":3842,"円":3843,"冈":3844,"冊":3845,"再":3846,"冏":3847,"冒":3848,"冕":3849,"冗":3850,"写":3851,"军":3852,"农":3853,"冠":3854,"冤":3855,"冨":3856,"冬":3857,"冯":3858,"冰":3859,"冲":3860,"冴":3861,"况":3862,"冶":3863,"冷":3864,"冼":3865,"净":3866,"准":3867,"凉":3868,"凌":3869,"凍":3870,"凛":3871,"凝":3872,"几":3873,"凡":3874,"凤":3875,"処":3876,"凯":3877,"凰":3878,"凱":3879,"凶":3880,"凹":3881,"出":3882,"击":3883,"函":3884,"刀":3885,"刃":3886,"分":3887,"切":3888,"刈":3889,"刊":3890,"刑":3891,"列":3892,"刘":3893,"初":3894,"判":3895,"別":3896,"利":3897,"别":3898,"到":3899,"制":3900,"刷":3901,"券":3902,"刺":3903,"刻":3904,"則":3905,"削":3906,"剌":3907,"前":3908,"剑":3909,"剖":3910,"剛":3911,"剣":3912,"剤":3913,"剥":3914,"剧":3915,"剪":3916,"副":3917,"剰":3918,"割":3919,"創":3920,"劃":3921,"劇":3922,"劈":3923,"劉":3924,"劍":3925,"力":3926,"办":3927,"功":3928,"加":3929,"劣":3930,"动":3931,"助":3932,"努":3933,"劫":3934,"劭":3935,"励":3936,"劲":3937,"劳":3938,"労":3939,"効":3940,"劾":3941,"势":3942,"勁":3943,"勃":3944,"勅":3945,"勇":3946,"勉":3947,"勒":3948,"動":3949,"勘":3950,"務":3951,"勛":3952,"勝":3953,"募":3954,"勢":3955,"勤":3956,"勧":3957,"勰":3958,"勲":3959,"勳":3960,"勺":3961,"勾":3962,"匁":3963,"包":3964,"匈":3965,"化":3966,"北":3967,"匙":3968,"匠":3969,"匡":3970,"匯":3971,"匹":3972,"区":3973,"医":3974,"匿":3975,"區":3976,"十":3977,"千":3978,"升":3979,"午":3980,"半":3981,"卍":3982,"华":3983,"协":3984,"卐":3985,"卑":3986,"卒":3987,"卓":3988,"協":3989,"单":3990,"南":3991,"単":3992,"博":3993,"卜":3994,"卞":3995,"占":3996,"卡":3997,"卢":3998,"卣":3999,"卦":4000,"卧":4001,"卫":4002,"卯":4003,"印":4004,"危":4005,"即":4006,"却":4007,"卵":4008,"卷":4009,"卸":4010,"卿":4011,"厂":4012,"厅":4013,"历":4014,"压":4015,"厌":4016,"厘":4017,"厚":4018,"原":4019,"厥":4020,"厦":4021,"厭":4022,"厲":4023,"厳":4024,"厶":4025,"去":4026,"县":4027,"参":4028,"參":4029,"又":4030,"及":4031,"友":4032,"双":4033,"反":4034,"収":4035,"发":4036,"叔":4037,"取":4038,"受":4039,"变":4040,"叙":4041,"叟":4042,"叠":4043,"叡":4044,"口":4045,"古":4046,"句":4047,"只":4048,"叫":4049,"召":4050,"可":4051,"台":4052,"史":4053,"右":4054,"叶":4055,"号":4056,"司":4057,"吃":4058,"各":4059,"合":4060,"吉":4061,"吊":4062,"同":4063,"名":4064,"后":4065,"吏":4066,"吐":4067,"向":4068,"吕":4069,"吗":4070,"君":4071,"吟":4072,"否":4073,"含":4074,"听":4075,"启":4076,"吱":4077,"吳":4078,"吴":4079,"吸":4080,"吹":4081,"吾":4082,"呀":4083,"呂":4084,"呆":4085,"呈":4086,"呉":4087,"告":4088,"员":4089,"周":4090,"呪":4091,"味":4092,"呼":4093,"命":4094,"咀":4095,"和":4096,"咏":4097,"咒":4098,"咗":4099,"咩":4100,"咪":4101,"咱":4102,"咲":4103,"咸":4104,"哀":4105,"品":4106,"哇":4107,"哈":4108,"哉":4109,"哒":4110,"員":4111,"哥":4112,"哦":4113,"哪":4114,"哭":4115,"哲":4116,"唆":4117,"唐":4118,"唖":4119,"唯":4120,"唱":4121,"唵":4122,"商":4123,"啊":4124,"問":4125,"啓":4126,"啞":4127,"啟":4128,"啤":4129,"啰":4130,"啵":4131,"善":4132,"喇":4133,"喋":4134,"喚":4135,"喜":4136,"喦":4137,"喪":4138,"喫":4139,"喬":4140,"單":4141,"喵":4142,"営":4143,"喻":4144,"嗡":4145,"嗣":4146,"嘆":4147,"嘉":4148,"嘗":4149,"嘱":4150,"嘴":4151,"噐":4152,"噠":4153,"器":4154,"噴":4155,"噶":4156,"噻":4157,"嚇":4158,"嚈":4159,"嚳":4160,"嚴":4161,"囂":4162,"囉":4163,"囗":4164,"囚":4165,"四":4166,"回":4167,"因":4168,"团":4169,"団":4170,"囧":4171,"园":4172,"囯":4173,"困":4174,"囲":4175,"図":4176,"固":4177,"国":4178,"图":4179,"圆":4180,"國":4181,"圍":4182,"圏":4183,"園":4184,"圓":4185,"圖":4186,"團":4187,"圜":4188,"土":4189,"圣":4190,"圧":4191,"在":4192,"圪":4193,"圭":4194,"地":4195,"圳":4196,"场":4197,"圻":4198,"坂":4199,"均":4200,"坊":4201,"坎":4202,"坐":4203,"坑":4204,"块":4205,"坛":4206,"坝":4207,"坡":4208,"坤":4209,"坦":4210,"坪":4211,"垂":4212,"型":4213,"垒":4214,"垕":4215,"垣":4216,"埃":4217,"埋":4218,"城":4219,"埔":4220,"域":4221,"埠":4222,"埲":4223,"埴":4224,"埵":4225,"執":4226,"培":4227,"基":4228,"堀":4229,"堂":4230,"堅":4231,"堆":4232,"堕":4233,"堡":4234,"堤":4235,"堪":4236,"堯":4237,"報":4238,"場":4239,"塁":4240,"塊":4241,"塑":4242,"塔":4243,"塗":4244,"塘":4245,"塙":4246,"塚":4247,"塞":4248,"塡":4249,"塩":4250,"塹":4251,"塾":4252,"境":4253,"墉":4254,"墓":4255,"増":4256,"墙":4257,"墜":4258,"增":4259,"墟":4260,"墨":4261,"墩":4262,"墳":4263,"墾":4264,"壁":4265,"壇":4266,"壊":4267,"壌":4268,"壓":4269,"壞":4270,"壤":4271,"士":4272,"壬":4273,"壮":4274,"壯":4275,"声":4276,"壱":4277,"売":4278,"壶":4279,"壹":4280,"壽":4281,"处":4282,"备":4283,"変":4284,"复":4285,"夏":4286,"夔":4287,"夕":4288,"外":4289,"夙":4290,"多":4291,"夜":4292,"夢":4293,"大":4294,"天":4295,"太":4296,"夫":4297,"央":4298,"失":4299,"头":4300,"夷":4301,"夹":4302,"奄":4303,"奇":4304,"奈":4305,"奉":4306,"奎":4307,"奏":4308,"契":4309,"奔":4310,"奕":4311,"奖":4312,"套":4313,"奘":4314,"奚":4315,"奢":4316,"奥":4317,"奧":4318,"奨":4319,"奪":4320,"奮":4321,"女":4322,"奴":4323,"奶":4324,"她":4325,"好":4326,"奿":4327,"如":4328,"妃":4329,"妄":4330,"妆":4331,"妇":4332,"妈":4333,"妊":4334,"妖":4335,"妙":4336,"妝":4337,"妞":4338,"妥":4339,"妨":4340,"妮":4341,"妳":4342,"妹":4343,"妻":4344,"妾":4345,"姉":4346,"始":4347,"姐":4348,"姑":4349,"姒":4350,"姓":4351,"委":4352,"姗":4353,"姚":4354,"姜":4355,"姦":4356,"姫":4357,"姬":4358,"姮":4359,"姻":4360,"姿":4361,"威":4362,"娃":4363,"娄":4364,"娘":4365,"娜":4366,"娠":4367,"娡":4368,"娥":4369,"娯":4370,"娱":4371,"娶":4372,"婆":4373,"婉":4374,"婚":4375,"婦":4376,"婷":4377,"婿":4378,"媒":4379,"媛":4380,"媯":4381,"媳":4382,"媽":4383,"嫁":4384,"嫂":4385,"嫖":4386,"嫡":4387,"嫦":4388,"嫪":4389,"嫫":4390,"嬌":4391,"嬢":4392,"嬰":4393,"嬴":4394,"孃":4395,"子":4396,"孔":4397,"字":4398,"存":4399,"孙":4400,"孚":4401,"孛":4402,"孜":4403,"孝":4404,"孟":4405,"季":4406,"孤":4407,"学":4408,"孩":4409,"孫":4410,"學":4411,"孺":4412,"宀":4413,"宁":4414,"它":4415,"宅":4416,"宇":4417,"守":4418,"安":4419,"宋":4420,"完":4421,"宍":4422,"宏":4423,"宓":4424,"宗":4425,"官":4426,"宙":4427,"定":4428,"宛":4429,"宜":4430,"宝":4431,"实":4432,"実":4433,"客":4434,"宣":4435,"室":4436,"宦":4437,"宪":4438,"宫":4439,"宮":4440,"宰":4441,"害":4442,"宴":4443,"宵":4444,"家":4445,"宸":4446,"容":4447,"宾":4448,"宿":4449,"寂":4450,"寄":4451,"寅":4452,"密":4453,"寇":4454,"富":4455,"寒":4456,"寔":4457,"寛":4458,"寝":4459,"寞":4460,"察":4461,"寡":4462,"實":4463,"寧":4464,"寨":4465,"審":4466,"寫":4467,"寮":4468,"寰":4469,"寵":4470,"寶":4471,"寸":4472,"对":4473,"寺":4474,"寻":4475,"导":4476,"対":4477,"寿":4478,"封":4479,"専":4480,"射":4481,"将":4482,"將":4483,"尉":4484,"尊":4485,"尋":4486,"對":4487,"導":4488,"小":4489,"少":4490,"尔":4491,"尚":4492,"尤":4493,"尧":4494,"尪":4495,"就":4496,"尸":4497,"尹":4498,"尺":4499,"尻":4500,"尼":4501,"尽":4502,"尾":4503,"尿":4504,"局":4505,"居":4506,"屈":4507,"届":4508,"屋":4509,"屍":4510,"屎":4511,"屏":4512,"展":4513,"属":4514,"屠":4515,"層":4516,"履":4517,"屮":4518,"屯":4519,"山":4520,"岁":4521,"岐":4522,"岛":4523,"岡":4524,"岩":4525,"岬":4526,"岭":4527,"岱":4528,"岳":4529,"岸":4530,"峠":4531,"峡":4532,"峤":4533,"峨":4534,"峰":4535,"島":4536,"峻":4537,"崇":4538,"崎":4539,"崑":4540,"崔":4541,"崖":4542,"崗":4543,"崩":4544,"崮":4545,"崳":4546,"崴":4547,"嵇":4548,"嵋":4549,"嵐":4550,"嵩":4551,"嵯":4552,"嶺":4553,"嶼":4554,"嶽":4555,"巌":4556,"巖":4557,"巛":4558,"川":4559,"州":4560,"巡":4561,"巢":4562,"巣":4563,"工":4564,"左":4565,"巧":4566,"巨":4567,"巩":4568,"巫":4569,"差":4570,"己":4571,"已":4572,"巳":4573,"巴":4574,"巻":4575,"巽":4576,"巾":4577,"币":4578,"市":4579,"布":4580,"帅":4581,"帆":4582,"师":4583,"希":4584,"帕":4585,"帖":4586,"帛":4587,"帝":4588,"帥":4589,"带":4590,"師":4591,"席":4592,"帮":4593,"帯":4594,"帰":4595,"帳":4596,"帶":4597,"帷":4598,"常":4599,"帽":4600,"幀":4601,"幅":4602,"幌":4603,"幕":4604,"幢":4605,"幣":4606,"幫":4607,"干":4608,"平":4609,"年":4610,"并":4611,"幸":4612,"幹":4613,"幻":4614,"幼":4615,"幽":4616,"幾":4617,"广":4618,"庁":4619,"広":4620,"庄":4621,"庆":4622,"庇":4623,"床":4624,"序":4625,"庐":4626,"库":4627,"应":4628,"底":4629,"庖":4630,"店":4631,"庙":4632,"庚":4633,"府":4634,"庞":4635,"庠":4636,"度":4637,"座":4638,"庫":4639,"庭":4640,"庵":4641,"庶":4642,"康":4643,"庸":4644,"廃":4645,"廉":4646,"廊":4647,"廋":4648,"廞":4649,"廟":4650,"廣":4651,"廬":4652,"廳":4653,"延":4654,"廷":4655,"建":4656,"廻":4657,"开":4658,"弁":4659,"异":4660,"弊":4661,"弋":4662,"式":4663,"弐":4664,"弓":4665,"弔":4666,"引":4667,"弗":4668,"弘":4669,"弟":4670,"张":4671,"弥":4672,"弦":4673,"弧":4674,"弯":4675,"弱":4676,"張":4677,"強":4678,"弹":4679,"强":4680,"弼":4681,"弾":4682,"彈":4683,"彌":4684,"归":4685,"当":4686,"录":4687,"彙":4688,"彝":4689,"形":4690,"彦":4691,"彩":4692,"彪":4693,"彫":4694,"彬":4695,"彭":4696,"彰":4697,"影":4698,"彳":4699,"役":4700,"彼":4701,"往":4702,"征":4703,"径":4704,"待":4705,"很":4706,"律":4707,"後":4708,"徐":4709,"徒":4710,"従":4711,"得":4712,"從":4713,"御":4714,"復":4715,"循":4716,"微":4717,"徳":4718,"徴":4719,"徵":4720,"德":4721,"徹":4722,"徼":4723,"徽":4724,"心":4725,"忄":4726,"必":4727,"忌":4728,"忍":4729,"志":4730,"忘":4731,"忙":4732,"応":4733,"忠":4734,"忧":4735,"快":4736,"念":4737,"忽":4738,"怀":4739,"态":4740,"怒":4741,"怖":4742,"怛":4743,"怜":4744,"思":4745,"怠":4746,"怡":4747,"急":4748,"性":4749,"怨":4750,"怪":4751,"总":4752,"恆":4753,"恋":4754,"恐":4755,"恒":4756,"恠":4757,"恢":4758,"恥":4759,"恨":4760,"恩":4761,"恪":4762,"恭":4763,"息":4764,"恵":4765,"恺":4766,"恽":4767,"悉":4768,"悌":4769,"悔":4770,"悟":4771,"悠":4772,"患":4773,"悦":4774,"您":4775,"悩":4776,"悪":4777,"悲":4778,"悼":4779,"情":4780,"惇":4781,"惑":4782,"惜":4783,"惟":4784,"惠":4785,"惣":4786,"惨":4787,"惯":4788,"惰":4789,"想":4790,"愁":4791,"愈":4792,"愉":4793,"愍":4794,"意":4795,"愚":4796,"愛":4797,"感":4798,"愿":4799,"慈":4800,"態":4801,"慌":4802,"慎":4803,"慕":4804,"慢":4805,"慣":4806,"慧":4807,"慨":4808,"慮":4809,"慰":4810,"慶":4811,"憂":4812,"憎":4813,"憐":4814,"憤":4815,"憨":4816,"憩":4817,"憲":4818,"憶":4819,"憾":4820,"懇":4821,"應":4822,"懐":4823,"懲":4824,"懵":4825,"懶":4826,"懷":4827,"懸":4828,"懺":4829,"懿":4830,"戀":4831,"戈":4832,"戉":4833,"戊":4834,"戍":4835,"戎":4836,"戏":4837,"成":4838,"我":4839,"戒":4840,"战":4841,"戚":4842,"戦":4843,"截":4844,"戯":4845,"戰":4846,"戲":4847,"戳":4848,"戴":4849,"户":4850,"戸":4851,"戾":4852,"房":4853,"所":4854,"扁":4855,"扃":4856,"扇":4857,"手":4858,"才":4859,"扎":4860,"扑":4861,"打":4862,"払":4863,"托":4864,"扬":4865,"扱":4866,"扶":4867,"批":4868,"承":4869,"技":4870,"抄":4871,"把":4872,"抑":4873,"投":4874,"抗":4875,"折":4876,"抚":4877,"抜":4878,"択":4879,"护":4880,"报":4881,"抱":4882,"抵":4883,"抹":4884,"押":4885,"抽":4886,"担":4887,"拉":4888,"拍":4889,"拒":4890,"拓":4891,"拘":4892,"拙":4893,"招":4894,"拜":4895,"拝":4896,"拠":4897,"拡":4898,"拨":4899,"括":4900,"拯":4901,"拳":4902,"拷":4903,"拼":4904,"拾":4905,"拿":4906,"持":4907,"挂":4908,"指":4909,"按":4910,"挑":4911,"挙":4912,"振":4913,"挺":4914,"捉":4915,"捕":4916,"捜":4917,"捨":4918,"据":4919,"捲":4920,"捷":4921,"捺":4922,"掃":4923,"授":4924,"掌":4925,"排":4926,"掘":4927,"掛":4928,"掟":4929,"採":4930,"探":4931,"接":4932,"控":4933,"推":4934,"措":4935,"掬":4936,"掲":4937,"掻":4938,"掾":4939,"揈":4940,"描":4941,"提":4942,"揚":4943,"換":4944,"握":4945,"揮":4946,"援":4947,"揺":4948,"損":4949,"搏":4950,"搖":4951,"搜":4952,"搬":4953,"携":4954,"搾":4955,"摂":4956,"摇":4957,"摔":4958,"摘":4959,"摩":4960,"摯":4961,"摶":4962,"撃":4963,"撇":4964,"撤":4965,"撫":4966,"播":4967,"撮":4968,"撲":4969,"擁":4970,"操":4971,"擒":4972,"擦":4973,"擬":4974,"擴":4975,"攀":4976,"攘":4977,"支":4978,"收":4979,"改":4980,"攻":4981,"放":4982,"政":4983,"故":4984,"效":4985,"敌":4986,"敎":4987,"敏":4988,"救":4989,"敕":4990,"敖":4991,"敗":4992,"教":4993,"敢":4994,"散":4995,"敦":4996,"敬":4997,"数":4998,"整":4999,"敵":5000,"敷":5001,"數":5002,"文":5003,"斉":5004,"斌":5005,"斎":5006,"斐":5007,"斗":5008,"料":5009,"斜":5010,"斟":5011,"斤":5012,"斥":5013,"斬":5014,"断":5015,"斯":5016,"新":5017,"斷":5018,"方":5019,"於":5020,"施":5021,"旅":5022,"旋":5023,"族":5024,"旒":5025,"旗":5026,"无":5027,"旡":5028,"既":5029,"日":5030,"旦":5031,"旧":5032,"旨":5033,"早":5034,"旬":5035,"旭":5036,"时":5037,"旺":5038,"旻":5039,"昂":5040,"昆":5041,"昇":5042,"昊":5043,"昌":5044,"明":5045,"昏":5046,"易":5047,"昔":5048,"星":5049,"映":5050,"春":5051,"昧":5052,"昨":5053,"昭":5054,"是":5055,"昼":5056,"显":5057,"晁":5058,"時":5059,"晃":5060,"晉":5061,"晋":5062,"晏":5063,"晓":5064,"晔":5065,"晚":5066,"晥":5067,"晨":5068,"晩":5069,"普":5070,"景":5071,"晳":5072,"晴":5073,"晶":5074,"智":5075,"暁":5076,"暇":5077,"暉":5078,"暎":5079,"暑":5080,"暖":5081,"暗":5082,"暢":5083,"暦":5084,"暫":5085,"暮":5086,"暴":5087,"暹":5088,"曆":5089,"曇":5090,"曉":5091,"曙":5092,"曜":5093,"曰":5094,"曲":5095,"更":5096,"書":5097,"曹":5098,"曼":5099,"曽":5100,"曾":5101,"替":5102,"最":5103,"會":5104,"月":5105,"有":5106,"朋":5107,"服":5108,"朔":5109,"朕":5110,"朗":5111,"望":5112,"朝":5113,"期":5114,"木":5115,"未":5116,"末":5117,"本":5118,"札":5119,"术":5120,"朱":5121,"朴":5122,"朵":5123,"机":5124,"朽":5125,"杀":5126,"杂":5127,"权":5128,"杉":5129,"李":5130,"杏":5131,"材":5132,"村":5133,"杖":5134,"杜":5135,"杞":5136,"束":5137,"条":5138,"来":5139,"杨":5140,"杭":5141,"杯":5142,"杰":5143,"東":5144,"杵":5145,"杷":5146,"杼":5147,"松":5148,"板":5149,"极":5150,"枇":5151,"析":5152,"枕":5153,"林":5154,"枚":5155,"果":5156,"枝":5157,"枞":5158,"枢":5159,"枣":5160,"枪":5161,"枯":5162,"架":5163,"枷":5164,"枸":5165,"柄":5166,"柏":5167,"某":5168,"染":5169,"柔":5170,"柘":5171,"查":5172,"柱":5173,"柳":5174,"柴":5175,"査":5176,"柿":5177,"栄":5178,"栅":5179,"标":5180,"栏":5181,"树":5182,"栖":5183,"栗":5184,"校":5185,"栩":5186,"株":5187,"核":5188,"根":5189,"格":5190,"栽":5191,"栾":5192,"桀":5193,"桂":5194,"桃":5195,"案":5196,"桐":5197,"桑":5198,"桓":5199,"桜":5200,"桢":5201,"桥":5202,"桲":5203,"梁":5204,"梅":5205,"梓":5206,"梗":5207,"條":5208,"梢":5209,"梦":5210,"梧":5211,"梨":5212,"梭":5213,"械":5214,"梵":5215,"检":5216,"棄":5217,"棉":5218,"棋":5219,"棍":5220,"棒":5221,"棘":5222,"棚":5223,"棟":5224,"棠":5225,"棣":5226,"森":5227,"棱":5228,"棲":5229,"棺":5230,"椄":5231,"植":5232,"椎":5233,"椒":5234,"検":5235,"椿":5236,"楊":5237,"楓":5238,"楚":5239,"楞":5240,"楠":5241,"楢":5242,"楨":5243,"業":5244,"極":5245,"楷":5246,"楼":5247,"楽":5248,"概":5249,"榅":5250,"榆":5251,"榔":5252,"榕":5253,"榮":5254,"槃":5255,"構":5256,"槍":5257,"槐":5258,"槑":5259,"様":5260,"槟":5261,"樁":5262,"樂":5263,"樊":5264,"樑":5265,"樓":5266,"樘":5267,"標":5268,"樛":5269,"樞":5270,"樟":5271,"模":5272,"樣":5273,"権":5274,"横":5275,"樱":5276,"樵":5277,"樹":5278,"樺":5279,"樽":5280,"橋":5281,"橘":5282,"橙":5283,"機":5284,"檀":5285,"檄":5286,"檖":5287,"檟":5288,"檢":5289,"檳":5290,"櫛":5291,"欄":5292,"欅":5293,"權":5294,"欒":5295,"欝":5296,"欠":5297,"次":5298,"欢":5299,"欣":5300,"欧":5301,"欲":5302,"欸":5303,"欺":5304,"欽":5305,"款":5306,"歆":5307,"歇":5308,"歌":5309,"歐":5310,"歓":5311,"歡":5312,"止":5313,"正":5314,"此":5315,"步":5316,"武":5317,"歩":5318,"歪":5319,"歯":5320,"歲":5321,"歳":5322,"歴":5323,"歷":5324,"歸":5325,"死":5326,"殆":5327,"殉":5328,"殊":5329,"残":5330,"殖":5331,"殘":5332,"殴":5333,"段":5334,"殷":5335,"殺":5336,"殿":5337,"毅":5338,"母":5339,"毎":5340,"每":5341,"毐":5342,"毒":5343,"毓":5344,"比":5345,"毕":5346,"毗":5347,"毘":5348,"毛":5349,"氏":5350,"氐":5351,"民":5352,"氓":5353,"气":5354,"気":5355,"氣":5356,"水":5357,"氷":5358,"永":5359,"氾":5360,"汁":5361,"求":5362,"汇":5363,"汉":5364,"汐":5365,"汕":5366,"汗":5367,"汚":5368,"汝":5369,"汞":5370,"江":5371,"池":5372,"汤":5373,"汪":5374,"汲":5375,"汴":5376,"汶":5377,"決":5378,"汽":5379,"汾":5380,"沁":5381,"沂":5382,"沃":5383,"沅":5384,"沈":5385,"沉":5386,"沓":5387,"沖":5388,"沙":5389,"沛":5390,"没":5391,"沢":5392,"沧":5393,"沪":5394,"沫":5395,"沱":5396,"河":5397,"沸":5398,"油":5399,"治":5400,"沼":5401,"沽":5402,"沿":5403,"況":5404,"泉":5405,"泊":5406,"泌":5407,"泓":5408,"法":5409,"泛":5410,"泡":5411,"波":5412,"泣":5413,"泥":5414,"注":5415,"泪":5416,"泰":5417,"泳":5418,"泸":5419,"泽":5420,"洋":5421,"洗":5422,"洛":5423,"洞":5424,"津":5425,"洪":5426,"洮":5427,"洲":5428,"洹":5429,"活":5430,"派":5431,"流":5432,"浄":5433,"浅":5434,"浆":5435,"济":5436,"浏":5437,"浒":5438,"浙":5439,"浚":5440,"浜":5441,"浞":5442,"浦":5443,"浩":5444,"浪":5445,"浮":5446,"浯":5447,"浴":5448,"海":5449,"浸":5450,"涅":5451,"涇":5452,"消":5453,"涉":5454,"涙":5455,"涟":5456,"润":5457,"液":5458,"涵":5459,"涼":5460,"涿":5461,"淇":5462,"淋":5463,"淑":5464,"淡":5465,"淨":5466,"淫":5467,"淮":5468,"深":5469,"淳":5470,"淵":5471,"混":5472,"淸":5473,"添":5474,"清":5475,"渇":5476,"済":5477,"渉":5478,"渋":5479,"渔":5480,"渙":5481,"渚":5482,"減":5483,"渠":5484,"渡":5485,"渤":5486,"渥":5487,"温":5488,"測":5489,"渭":5490,"港":5491,"游":5492,"渾":5493,"湉":5494,"湖":5495,"湘":5496,"湛":5497,"湯":5498,"湾":5499,"湿":5500,"満":5501,"溉":5502,"源":5503,"準":5504,"溜":5505,"溝":5506,"溥":5507,"溪":5508,"溫":5509,"溱":5510,"溶":5511,"滅":5512,"滇":5513,"滋":5514,"滎":5515,"滑":5516,"滕":5517,"滝":5518,"滞":5519,"满":5520,"滨":5521,"滴":5522,"滸":5523,"滿":5524,"漁":5525,"漂":5526,"漆":5527,"漏":5528,"演":5529,"漕":5530,"漢":5531,"漪":5532,"漫":5533,"漬":5534,"漳":5535,"漸":5536,"潔":5537,"潘":5538,"潛":5539,"潜":5540,"潟":5541,"潤":5542,"潭":5543,"潮":5544,"潼":5545,"澄":5546,"澜":5547,"澤":5548,"澧":5549,"澳":5550,"激":5551,"濁":5552,"濂":5553,"濃":5554,"濕":5555,"濛":5556,"濞":5557,"濟":5558,"濤":5559,"濫":5560,"濬":5561,"濮":5562,"濱":5563,"濳":5564,"瀛":5565,"瀧":5566,"瀬":5567,"瀾":5568,"灃":5569,"灌":5570,"灞":5571,"灣":5572,"火":5573,"灬":5574,"灭":5575,"灯":5576,"灰":5577,"灵":5578,"灶":5579,"灼":5580,"災":5581,"炁":5582,"炉":5583,"炊":5584,"炎":5585,"炒":5586,"炭":5587,"炮":5588,"点":5589,"為":5590,"炽":5591,"烈":5592,"烏":5593,"烟":5594,"烧":5595,"热":5596,"焉":5597,"焘":5598,"焚":5599,"無":5600,"焦":5601,"焰":5602,"然":5603,"焼":5604,"煉":5605,"煌":5606,"煙":5607,"煜":5608,"煥":5609,"照":5610,"煩":5611,"煬":5612,"煮":5613,"熊":5614,"熙":5615,"熟":5616,"熱":5617,"熹":5618,"燃":5619,"燈":5620,"燒":5621,"燕":5622,"營":5623,"燥":5624,"燦":5625,"燧":5626,"燮":5627,"燾":5628,"爆":5629,"爐":5630,"爪":5631,"爭":5632,"爰":5633,"爱":5634,"爲":5635,"爵":5636,"父":5637,"爷":5638,"爸":5639,"爺":5640,"爽":5641,"爾":5642,"片":5643,"版":5644,"牌":5645,"牙":5646,"牛":5647,"牝":5648,"牟":5649,"牠":5650,"牡":5651,"牢":5652,"牧":5653,"物":5654,"牯":5655,"牲":5656,"牵":5657,"特":5658,"牺":5659,"犍":5660,"犛":5661,"犠":5662,"犧":5663,"犬":5664,"犭":5665,"犯":5666,"状":5667,"犹":5668,"狀":5669,"狂":5670,"狄":5671,"狐":5672,"狗":5673,"狦":5674,"狩":5675,"独":5676,"狭":5677,"狮":5678,"狸":5679,"狼":5680,"猓":5681,"猛":5682,"猟":5683,"猡":5684,"猪":5685,"猫":5686,"献":5687,"猴":5688,"猶":5689,"獄":5690,"獅":5691,"獎":5692,"獞":5693,"獣":5694,"獨":5695,"獲":5696,"獻":5697,"玀":5698,"玄":5699,"率":5700,"玉":5701,"王":5702,"玛":5703,"玡":5704,"玩":5705,"环":5706,"玲":5707,"玻":5708,"珍":5709,"珏":5710,"珞":5711,"珠":5712,"珥":5713,"班":5714,"珲":5715,"現":5716,"球":5717,"琅":5718,"理":5719,"琏":5720,"琢":5721,"琦":5722,"琪":5723,"琴":5724,"琵":5725,"琶":5726,"琺":5727,"瑕":5728,"瑛":5729,"瑜":5730,"瑞":5731,"瑟":5732,"瑠":5733,"瑤":5734,"瑩":5735,"瑪":5736,"瑾":5737,"璃":5738,"璆":5739,"璇":5740,"璋":5741,"璞":5742,"璟":5743,"璨":5744,"璩":5745,"環":5746,"璽":5747,"瓊":5748,"瓜":5749,"瓦":5750,"瓶":5751,"瓷":5752,"甁":5753,"甌":5754,"甘":5755,"甚":5756,"生":5757,"產":5758,"産":5759,"用":5760,"甫":5761,"田":5762,"由":5763,"甲":5764,"申":5765,"电":5766,"男":5767,"町":5768,"画":5769,"界":5770,"畏":5771,"畑":5772,"畔":5773,"留":5774,"畜":5775,"畝":5776,"畠":5777,"畢":5778,"略":5779,"番":5780,"畫":5781,"畬":5782,"異":5783,"畲":5784,"畳":5785,"畴":5786,"畵":5787,"當":5788,"疃":5789,"疆":5790,"疎":5791,"疑":5792,"疫":5793,"疯":5794,"疲":5795,"疾":5796,"痂":5797,"病":5798,"症":5799,"痔":5800,"痕":5801,"痘":5802,"痛":5803,"痢":5804,"痰":5805,"痴":5806,"療":5807,"癌":5808,"癖":5809,"癩":5810,"癸":5811,"発":5812,"登":5813,"發":5814,"白":5815,"百":5816,"皀":5817,"皂":5818,"的":5819,"皆":5820,"皇":5821,"皖":5822,"皞":5823,"皮":5824,"皿":5825,"盆":5826,"盈":5827,"益":5828,"盐":5829,"盖":5830,"盗":5831,"盘":5832,"盛":5833,"盜":5834,"盟":5835,"監":5836,"盤":5837,"盧":5838,"目":5839,"盲":5840,"直":5841,"相":5842,"盼":5843,"盾":5844,"省":5845,"眉":5846,"看":5847,"県":5848,"眜":5849,"眞":5850,"真":5851,"眠":5852,"眸":5853,"眼":5854,"眾":5855,"着":5856,"睏":5857,"睛":5858,"睡":5859,"督":5860,"睦":5861,"瞬":5862,"瞳":5863,"瞻":5864,"瞿":5865,"矗":5866,"矛":5867,"矢":5868,"矣":5869,"知":5870,"短":5871,"矯":5872,"石":5873,"矿":5874,"砀":5875,"码":5876,"砂":5877,"砍":5878,"研":5879,"砕":5880,"砚":5881,"砲":5882,"破":5883,"砺":5884,"础":5885,"硕":5886,"硝":5887,"硫":5888,"硬":5889,"碁":5890,"碉":5891,"碎":5892,"碑":5893,"碓":5894,"碧":5895,"碩":5896,"確":5897,"碼":5898,"磁":5899,"磐":5900,"磨":5901,"磯":5902,"礁":5903,"礎":5904,"示":5905,"礼":5906,"礽":5907,"社":5908,"祁":5909,"祂":5910,"祈":5911,"祉":5912,"祐":5913,"祕":5914,"祖":5915,"祗":5916,"祚":5917,"祛":5918,"祜":5919,"祝":5920,"神":5921,"祠":5922,"祥":5923,"票":5924,"祭":5925,"祿":5926,"禁":5927,"禄":5928,"禅":5929,"禍":5930,"禎":5931,"福":5932,"禛":5933,"禧":5934,"禪":5935,"禮":5936,"禹":5937,"禺":5938,"禽":5939,"禿":5940,"秀":5941,"私":5942,"秉":5943,"秋":5944,"种":5945,"科":5946,"秒":5947,"秘":5948,"租":5949,"秦":5950,"秩":5951,"称":5952,"移":5953,"稀":5954,"程":5955,"税":5956,"稔":5957,"稗":5958,"稚":5959,"種":5960,"稱":5961,"稲":5962,"稷":5963,"稹":5964,"稼":5965,"稽":5966,"稿":5967,"穀":5968,"穂":5969,"穆":5970,"積":5971,"穎":5972,"穏":5973,"穣":5974,"穫":5975,"穰":5976,"穴":5977,"究":5978,"穹":5979,"空":5980,"突":5981,"窃":5982,"窑":5983,"窒":5984,"窓":5985,"窝":5986,"窟":5987,"窩":5988,"窮":5989,"窯":5990,"窿":5991,"竅":5992,"竇":5993,"立":5994,"站":5995,"竜":5996,"章":5997,"童":5998,"竭":5999,"端":6000,"競":6001,"竹":6002,"竺":6003,"笈":6004,"笑":6005,"笔":6006,"笛":6007,"笠":6008,"符":6009,"第":6010,"笼":6011,"筆":6012,"等":6013,"筋":6014,"筏":6015,"筑":6016,"筒":6017,"答":6018,"策":6019,"筝":6020,"筠":6021,"筷":6022,"筹":6023,"签":6024,"简":6025,"箇":6026,"算":6027,"管":6028,"箭":6029,"箱":6030,"箴":6031,"節":6032,"範":6033,"篆":6034,"篇":6035,"築":6036,"篠":6037,"篤":6038,"簡":6039,"簽":6040,"簿":6041,"籌":6042,"籍":6043,"籙":6044,"籠":6045,"籤":6046,"米":6047,"粉":6048,"粋":6049,"粒":6050,"粗":6051,"粘":6052,"粛":6053,"粟":6054,"粤":6055,"粥":6056,"粧":6057,"粱":6058,"粴":6059,"粵":6060,"粹":6061,"粽":6062,"精":6063,"糕":6064,"糖":6065,"糞":6066,"糧":6067,"糸":6068,"系":6069,"糾":6070,"紀":6071,"約":6072,"紅":6073,"紋":6074,"納":6075,"紓":6076,"純":6077,"紗":6078,"紘":6079,"紙":6080,"級":6081,"紛":6082,"素":6083,"紡":6084,"索":6085,"紫":6086,"累":6087,"細":6088,"紳":6089,"紹":6090,"紺":6091,"終":6092,"絃":6093,"組":6094,"経":6095,"結":6096,"絕":6097,"絞":6098,"絡":6099,"絢":6100,"給":6101,"統":6102,"絵":6103,"絶":6104,"絹":6105,"綏":6106,"經":6107,"継":6108,"続":6109,"綜":6110,"綠":6111,"綫":6112,"維":6113,"綰":6114,"綱":6115,"網":6116,"綸":6117,"綺":6118,"綽":6119,"綾":6120,"綿":6121,"緊":6122,"総":6123,"緑":6124,"緒":6125,"線":6126,"締":6127,"緣":6128,"編":6129,"緩":6130,"緯":6131,"練":6132,"縁":6133,"縄":6134,"縛":6135,"縣":6136,"縦":6137,"縫":6138,"縮":6139,"縯":6140,"縱":6141,"總":6142,"績":6143,"繁":6144,"繆":6145,"繊":6146,"繋":6147,"織":6148,"繕":6149,"繫":6150,"繭":6151,"繰":6152,"繼":6153,"纂":6154,"續":6155,"纍":6156,"红":6157,"约":6158,"级":6159,"纪":6160,"纬":6161,"纲":6162,"纳":6163,"纸":6164,"线":6165,"练":6166,"组":6167,"绅":6168,"细":6169,"绍":6170,"经":6171,"结":6172,"绕":6173,"络":6174,"绝":6175,"统":6176,"绥":6177,"继":6178,"绪":6179,"绰":6180,"维":6181,"缃":6182,"编":6183,"缘":6184,"缠":6185,"网":6186,"罔":6187,"罕":6188,"罗":6189,"罟":6190,"罪":6191,"罫":6192,"置":6193,"罰":6194,"署":6195,"罷":6196,"羅":6197,"羊":6198,"羌":6199,"美":6200,"羢":6201,"羣":6202,"群":6203,"義":6204,"羬":6205,"羲":6206,"羽":6207,"羿":6208,"翁":6209,"翅":6210,"翊":6211,"翌":6212,"翎":6213,"習":6214,"翔":6215,"翕":6216,"翟":6217,"翠":6218,"翰":6219,"翳":6220,"翻":6221,"翼":6222,"耀":6223,"老":6224,"考":6225,"者":6226,"耆":6227,"而":6228,"耐":6229,"耒":6230,"耕":6231,"耗":6232,"耙":6233,"耳":6234,"耶":6235,"耷":6236,"耻":6237,"耽":6238,"聂":6239,"聊":6240,"聋":6241,"联":6242,"聖":6243,"聞":6244,"聡":6245,"聯":6246,"聰":6247,"聲":6248,"聴":6249,"聶":6250,"職":6251,"聾":6252,"肃":6253,"肆":6254,"肇":6255,"肉":6256,"肖":6257,"肘":6258,"肝":6259,"股":6260,"肥":6261,"肩":6262,"肪":6263,"肯":6264,"肱":6265,"育":6266,"肺":6267,"肾":6268,"胃":6269,"胆":6270,"背":6271,"胎":6272,"胚":6273,"胜":6274,"胞":6275,"胡":6276,"胤":6277,"胥":6278,"胴":6279,"胶":6280,"胸":6281,"能":6282,"脂":6283,"脅":6284,"脈":6285,"脉":6286,"脊":6287,"脑":6288,"脚":6289,"脩":6290,"脫":6291,"脯":6292,"脱":6293,"脳":6294,"脷":6295,"脸":6296,"脹":6297,"腐":6298,"腑":6299,"腔":6300,"腕":6301,"腰":6302,"腸":6303,"腹":6304,"腺":6305,"腻":6306,"腾":6307,"膏":6308,"膑":6309,"膚":6310,"膜":6311,"膠":6312,"膨":6313,"膺":6314,"臏":6315,"臓":6316,"臣":6317,"臥":6318,"臧":6319,"臨":6320,"自":6321,"臭":6322,"至":6323,"致":6324,"臺":6325,"臾":6326,"舆":6327,"與":6328,"興":6329,"舊":6330,"舌":6331,"舍":6332,"舎":6333,"舒":6334,"舗":6335,"舜":6336,"舞":6337,"舟":6338,"航":6339,"般":6340,"舰":6341,"舶":6342,"船":6343,"艇":6344,"艦":6345,"艮":6346,"良":6347,"色":6348,"艳":6349,"艶":6350,"艷":6351,"艹":6352,"艺":6353,"节":6354,"芋":6355,"芍":6356,"芙":6357,"芜":6358,"芝":6359,"芥":6360,"芦":6361,"芩":6362,"芬":6363,"花":6364,"芳":6365,"芸":6366,"芹":6367,"芽":6368,"芾":6369,"苍":6370,"苏":6371,"苑":6372,"苗":6373,"苞":6374,"苡":6375,"若":6376,"苦":6377,"英":6378,"苴":6379,"苹":6380,"苺":6381,"茂":6382,"范":6383,"茄":6384,"茅":6385,"茉":6386,"茎":6387,"茗":6388,"茜":6389,"茨":6390,"茶":6391,"茸":6392,"荀":6393,"荆":6394,"荈":6395,"草":6396,"荊":6397,"荏":6398,"荒":6399,"荔":6400,"荘":6401,"荟":6402,"荡":6403,"荣":6404,"荤":6405,"药":6406,"荷":6407,"荼":6408,"莆":6409,"莉":6410,"莊":6411,"莎":6412,"莔":6413,"莙":6414,"莞":6415,"莫":6416,"莱":6417,"莲":6418,"莺":6419,"莽":6420,"菅":6421,"菊":6422,"菌":6423,"菓":6424,"菖":6425,"菘":6426,"菜":6427,"菠":6428,"菩":6429,"華":6430,"菲":6431,"菽":6432,"萊":6433,"萎":6434,"营":6435,"萧":6436,"萩":6437,"萬":6438,"落":6439,"葉":6440,"著":6441,"葛":6442,"董":6443,"葬":6444,"葱":6445,"葵":6446,"葷":6447,"蒂":6448,"蒋":6449,"蒙":6450,"蒡":6451,"蒨":6452,"蒲":6453,"蒸":6454,"蒿":6455,"蓄":6456,"蓋":6457,"蓝":6458,"蓬":6459,"蓮":6460,"蔓":6461,"蔘":6462,"蔚":6463,"蔡":6464,"蔣":6465,"蔥":6466,"蔦":6467,"蔭":6468,"蔵":6469,"蕃":6470,"蕅":6471,"蕉":6472,"蕊":6473,"蕙":6474,"蕩":6475,"蕭":6476,"蕾":6477,"薄":6478,"薇":6479,"薊":6480,"薌":6481,"薏":6482,"薔":6483,"薙":6484,"薦":6485,"薩":6486,"薪":6487,"薫":6488,"薬":6489,"藍":6490,"藏":6491,"藕":6492,"藝":6493,"藤":6494,"藥":6495,"藩":6496,"藪":6497,"藻":6498,"蘄":6499,"蘆":6500,"蘇":6501,"蘖":6502,"蘭":6503,"蘿":6504,"虎":6505,"虐":6506,"虔":6507,"處":6508,"虚":6509,"虛":6510,"虜":6511,"虞":6512,"號":6513,"虫":6514,"虱":6515,"虹":6516,"虾":6517,"蚊":6518,"蚕":6519,"蚡":6520,"蚩":6521,"蛄":6522,"蛇":6523,"蛋":6524,"蛍":6525,"蛙":6526,"蛤":6527,"蛮":6528,"蛾":6529,"蜀":6530,"蜂":6531,"蜋":6532,"蜜":6533,"蜣":6534,"蝉":6535,"蝦":6536,"蝴":6537,"蝶":6538,"螂":6539,"融":6540,"螳":6541,"螺":6542,"蟆":6543,"蟜":6544,"蟠":6545,"蟬":6546,"蟹":6547,"蟾":6548,"蠋":6549,"蠔":6550,"蠱":6551,"蠶":6552,"蠻":6553,"血":6554,"衆":6555,"行":6556,"衍":6557,"衒":6558,"術":6559,"街":6560,"衙":6561,"衛":6562,"衝":6563,"衞":6564,"衡":6565,"衢":6566,"衣":6567,"表":6568,"衰":6569,"衷":6570,"衿":6571,"袁":6572,"袄":6573,"袈":6574,"袋":6575,"袍":6576,"袖":6577,"被":6578,"袮":6579,"袴":6580,"袾":6581,"裁":6582,"裂":6583,"装":6584,"裏":6585,"裔":6586,"裕":6587,"補":6588,"裝":6589,"裟":6590,"裳":6591,"裴":6592,"裸":6593,"裹":6594,"製":6595,"複":6596,"褒":6597,"褚":6598,"襄":6599,"襟":6600,"襲":6601,"西":6602,"要":6603,"覃":6604,"覆":6605,"覇":6606,"見":6607,"規":6608,"視":6609,"覚":6610,"覧":6611,"親":6612,"観":6613,"覺":6614,"覽":6615,"觀":6616,"见":6617,"观":6618,"视":6619,"览":6620,"觉":6621,"角":6622,"解":6623,"触":6624,"言":6625,"訂":6626,"計":6627,"訊":6628,"討":6629,"訓":6630,"託":6631,"記":6632,"訟":6633,"訣":6634,"訪":6635,"設":6636,"許":6637,"訳":6638,"訴":6639,"訶":6640,"診":6641,"証":6642,"詐":6643,"詔":6644,"評":6645,"詞":6646,"詠":6647,"試":6648,"詩":6649,"詭":6650,"詰":6651,"話":6652,"該":6653,"詳":6654,"詵":6655,"詹":6656,"誅":6657,"誇":6658,"誉":6659,"誌":6660,"認":6661,"誓":6662,"誕":6663,"誘":6664,"語":6665,"誠":6666,"誤":6667,"誥":6668,"說":6669,"説":6670,"読":6671,"誰":6672,"課":6673,"誼":6674,"調":6675,"談":6676,"請":6677,"諏":6678,"論":6679,"諝":6680,"諡":6681,"諦":6682,"諫":6683,"諭":6684,"諮":6685,"諸":6686,"諾":6687,"謀":6688,"謁":6689,"謄":6690,"謋":6691,"謎":6692,"謐":6693,"謙":6694,"講":6695,"謝":6696,"謡":6697,"謨":6698,"謹":6699,"證":6700,"識":6701,"譚":6702,"譜":6703,"警":6704,"議":6705,"譲":6706,"護":6707,"讀":6708,"變":6709,"讓":6710,"讖":6711,"讚":6712,"计":6713,"讣":6714,"讨":6715,"让":6716,"议":6717,"讯":6718,"记":6719,"讷":6720,"许":6721,"论":6722,"识":6723,"词":6724,"诏":6725,"译":6726,"试":6727,"诗":6728,"话":6729,"语":6730,"诱":6731,"说":6732,"请":6733,"诸":6734,"读":6735,"调":6736,"谊":6737,"谋":6738,"谓":6739,"谚":6740,"谢":6741,"谱":6742,"谷":6743,"豆":6744,"豉":6745,"豊":6746,"豐":6747,"豔":6748,"豕":6749,"豚":6750,"象":6751,"豪":6752,"豫":6753,"豬":6754,"豸":6755,"貂":6756,"貉":6757,"貍":6758,"貓":6759,"貘":6760,"貝":6761,"貞":6762,"負":6763,"財":6764,"貢":6765,"貧":6766,"貨":6767,"販":6768,"貪":6769,"貫":6770,"責":6771,"貯":6772,"貴":6773,"買":6774,"貸":6775,"費":6776,"貿":6777,"賀":6778,"賃":6779,"賄":6780,"資":6781,"賈":6782,"賊":6783,"賒":6784,"賓":6785,"賛":6786,"賜":6787,"賞":6788,"賠":6789,"賢":6790,"賤":6791,"賦":6792,"質":6793,"賭":6794,"購":6795,"賽":6796,"賾":6797,"贄":6798,"贈":6799,"贊":6800,"贝":6801,"贞":6802,"贡":6803,"财":6804,"贤":6805,"货":6806,"贪":6807,"贯":6808,"贲":6809,"贵":6810,"费":6811,"贺":6812,"贼":6813,"贾":6814,"资":6815,"赋":6816,"赌":6817,"赛":6818,"赞":6819,"赤":6820,"赦":6821,"赫":6822,"赭":6823,"走":6824,"赳":6825,"赴":6826,"赵":6827,"起":6828,"超":6829,"越":6830,"趙":6831,"趟":6832,"趣":6833,"足":6834,"趴":6835,"趺":6836,"跃":6837,"跋":6838,"距":6839,"跡":6840,"跤":6841,"路":6842,"跳":6843,"践":6844,"跷":6845,"踊":6846,"踏":6847,"踢":6848,"蹦":6849,"蹴":6850,"躍":6851,"身":6852,"躬":6853,"車":6854,"軌":6855,"軍":6856,"軒":6857,"軟":6858,"転":6859,"軸":6860,"軼":6861,"軽":6862,"軾":6863,"較":6864,"載":6865,"輔":6866,"輛":6867,"輝":6868,"輦":6869,"輩":6870,"輪":6871,"輯":6872,"輸":6873,"輿":6874,"轄":6875,"轅":6876,"轉":6877,"轎":6878,"车":6879,"轩":6880,"轮":6881,"轸":6882,"载":6883,"轿":6884,"辆":6885,"辇":6886,"辉":6887,"输":6888,"辕":6889,"辖":6890,"辛":6891,"辞":6892,"辟":6893,"辣":6894,"辦":6895,"辨":6896,"辩":6897,"辭":6898,"辯":6899,"辰":6900,"辱":6901,"農":6902,"辶":6903,"边":6904,"辺":6905,"込":6906,"辽":6907,"达":6908,"迁":6909,"迅":6910,"过":6911,"迈":6912,"迎":6913,"运":6914,"近":6915,"返":6916,"还":6917,"这":6918,"进":6919,"远":6920,"连":6921,"迟":6922,"迦":6923,"迪":6924,"迫":6925,"迭":6926,"述":6927,"迴":6928,"迷":6929,"迹":6930,"追":6931,"退":6932,"送":6933,"逃":6934,"逆":6935,"选":6936,"透":6937,"逐":6938,"逓":6939,"途":6940,"這":6941,"通":6942,"速":6943,"造":6944,"逢":6945,"連":6946,"逮":6947,"週":6948,"進":6949,"逸":6950,"逼":6951,"遂":6952,"遅":6953,"遇":6954,"遊":6955,"運":6956,"遍":6957,"過":6958,"遐":6959,"道":6960,"達":6961,"違":6962,"遗":6963,"遠":6964,"遣":6965,"遥":6966,"適":6967,"遭":6968,"遮":6969,"遵":6970,"遷":6971,"選":6972,"遺":6973,"遼":6974,"避":6975,"邃":6976,"還":6977,"邊":6978,"邑":6979,"邓":6980,"邕":6981,"邗":6982,"邟":6983,"邢":6984,"那":6985,"邦":6986,"邪":6987,"邮":6988,"邯":6989,"邱":6990,"邳":6991,"邵":6992,"邸":6993,"邹":6994,"邺":6995,"邽":6996,"邾":6997,"郁":6998,"郉":6999,"郊":7000,"郎":7001,"郑":7002,"郗":7003,"郛":7004,"郝":7005,"郡":7006,"郢":7007,"郤":7008,"部":7009,"郭":7010,"郵":7011,"郷":7012,"郸":7013,"都":7014,"鄂":7015,"鄉":7016,"鄒":7017,"鄧":7018,"鄩":7019,"鄭":7020,"鄰":7021,"鄱":7022,"鄴":7023,"酉":7024,"配":7025,"酒":7026,"酔":7027,"酢":7028,"酥":7029,"酪":7030,"酬":7031,"酱":7032,"酵":7033,"酷":7034,"酸":7035,"醇":7036,"醉":7037,"醋":7038,"醒":7039,"醜":7040,"醤":7041,"醫":7042,"醬":7043,"醴":7044,"醸":7045,"釁":7046,"采":7047,"釈":7048,"释":7049,"釋":7050,"里":7051,"重":7052,"野":7053,"量":7054,"金":7055,"針":7056,"釧":7057,"釵":7058,"鈍":7059,"鈔":7060,"鈞":7061,"鈩":7062,"鈴":7063,"鈺":7064,"鉄":7065,"鉅":7066,"鉛":7067,"鉤":7068,"鉱":7069,"鉴":7070,"銀":7071,"銃":7072,"銅":7073,"銑":7074,"銖":7075,"銘":7076,"銭":7077,"銮":7078,"銳":7079,"鋒":7080,"鋭":7081,"鋳":7082,"鋼":7083,"錄":7084,"錐":7085,"錘":7086,"錠":7087,"錢":7088,"錦":7089,"錫":7090,"錬":7091,"錯":7092,"録":7093,"錶":7094,"鍋":7095,"鍛":7096,"鍾":7097,"鎌":7098,"鎖":7099,"鎗":7100,"鎧":7101,"鎮":7102,"鏑":7103,"鏡":7104,"鏵":7105,"鐘":7106,"鐵":7107,"鐸":7108,"鑁":7109,"鑑":7110,"鑒":7111,"鑢":7112,"鑼":7113,"鑽":7114,"钚":7115,"钞":7116,"钟":7117,"钢":7118,"钩":7119,"钰":7120,"钱":7121,"铁":7122,"铎":7123,"铜":7124,"银":7125,"铺":7126,"锅":7127,"锐":7128,"错":7129,"锡":7130,"锦":7131,"镇":7132,"镕":7133,"長":7134,"长":7135,"門":7136,"閉":7137,"開":7138,"閏":7139,"閑":7140,"間":7141,"関":7142,"閣":7143,"閥":7144,"閦":7145,"閩":7146,"閭":7147,"閲":7148,"閻":7149,"闍":7150,"闕":7151,"闘":7152,"闚":7153,"關":7154,"闡":7155,"闥":7156,"门":7157,"问":7158,"闰":7159,"间":7160,"闹":7161,"闻":7162,"闽":7163,"闾":7164,"阁":7165,"阆":7166,"阎":7167,"阑":7168,"阜":7169,"阝":7170,"阞":7171,"队":7172,"阪":7173,"阮":7174,"防":7175,"阳":7176,"阴":7177,"阶":7178,"阻":7179,"阿":7180,"陀":7181,"陂":7182,"附":7183,"际":7184,"陆":7185,"陈":7186,"陌":7187,"降":7188,"限":7189,"陕":7190,"陛":7191,"院":7192,"陣":7193,"除":7194,"陥":7195,"陪":7196,"陬":7197,"陰":7198,"陳":7199,"陵":7200,"陶":7201,"陷":7202,"陸":7203,"険":7204,"陽":7205,"隆":7206,"隊":7207,"隋":7208,"隍":7209,"階":7210,"随":7211,"隔":7212,"隘":7213,"隙":7214,"際":7215,"障":7216,"隠":7217,"隣":7218,"隧":7219,"隨":7220,"險":7221,"隱":7222,"隶":7223,"隷":7224,"隸":7225,"隻":7226,"隼":7227,"难":7228,"雀":7229,"雁":7230,"雄":7231,"雅":7232,"集":7233,"雇":7234,"雌":7235,"雍":7236,"雑":7237,"雒":7238,"雕":7239,"雙":7240,"雜":7241,"雞":7242,"離":7243,"難":7244,"雨":7245,"雪":7246,"雫":7247,"雯":7248,"雲":7249,"雳":7250,"零":7251,"雷":7252,"電":7253,"雾":7254,"需":7255,"霆":7256,"震":7257,"霊":7258,"霍":7259,"霓":7260,"霖":7261,"霜":7262,"霞":7263,"霧":7264,"霫":7265,"露":7266,"霸":7267,"霹":7268,"靈":7269,"靑":7270,"青":7271,"靖":7272,"静":7273,"靜":7274,"非":7275,"面":7276,"革":7277,"鞋":7278,"鞍":7279,"鞏":7280,"鞑":7281,"鞕":7282,"鞭":7283,"鞮":7284,"韃":7285,"韋":7286,"韓":7287,"韦":7288,"韩":7289,"韭":7290,"音":7291,"韵":7292,"韶":7293,"韻":7294,"響":7295,"頂":7296,"頃":7297,"項":7298,"順":7299,"須":7300,"頌":7301,"頎":7302,"預":7303,"頒":7304,"頓":7305,"領":7306,"頡":7307,"頤":7308,"頫":7309,"頭":7310,"頼":7311,"題":7312,"額":7313,"顏":7314,"顓":7315,"顔":7316,"顕":7317,"顗":7318,"願":7319,"類":7320,"顥":7321,"顧":7322,"顯":7323,"顶":7324,"项":7325,"顺":7326,"须":7327,"顼":7328,"顾":7329,"预":7330,"领":7331,"颖":7332,"题":7333,"颛":7334,"風":7335,"颱":7336,"颺":7337,"风":7338,"飒":7339,"飛":7340,"飞":7341,"食":7342,"飠":7343,"飢":7344,"飯":7345,"飲":7346,"飼":7347,"飽":7348,"飾":7349,"餃":7350,"餅":7351,"養":7352,"餓":7353,"餘":7354,"餡":7355,"館":7356,"饒":7357,"饣":7358,"饭":7359,"饮":7360,"饺":7361,"饼":7362,"馀":7363,"馆":7364,"馒":7365,"首":7366,"馗":7367,"香":7368,"馨":7369,"馬":7370,"馮":7371,"馳":7372,"駅":7373,"駆":7374,"駐":7375,"駒":7376,"駙":7377,"駝":7378,"駱":7379,"駿":7380,"騎":7381,"騒":7382,"験":7383,"騰":7384,"騶":7385,"驃":7386,"驅":7387,"驎":7388,"驗":7389,"驚":7390,"驤":7391,"马":7392,"驼":7393,"骅":7394,"骆":7395,"骐":7396,"骑":7397,"骢":7398,"骨":7399,"髀":7400,"髄":7401,"髓":7402,"體":7403,"高":7404,"髪":7405,"髮":7406,"鬚":7407,"鬣":7408,"鬥":7409,"鬯":7410,"鬱":7411,"鬼":7412,"魂":7413,"魄":7414,"魅":7415,"魏":7416,"魔":7417,"魚":7418,"魯":7419,"鮎":7420,"鮑":7421,"鮭":7422,"鮮":7423,"鯀":7424,"鯉":7425,"鯛":7426,"鯨":7427,"鱈":7428,"鱒":7429,"鱼":7430,"鲁":7431,"鲜":7432,"鳄":7433,"鳌":7434,"鳥":7435,"鳩":7436,"鳳":7437,"鳴":7438,"鴨":7439,"鴻":7440,"鵯":7441,"鵰":7442,"鵲":7443,"鵺":7444,"鶏":7445,"鶚":7446,"鶯":7447,"鶱":7448,"鶴":7449,"鷄":7450,"鷲":7451,"鷹":7452,"鷺":7453,"鸛":7454,"鸞":7455,"鸟":7456,"鸡":7457,"鸣":7458,"鸭":7459,"鸿":7460,"鹅":7461,"鹏":7462,"鹗":7463,"鹤":7464,"鹰":7465,"鹽":7466,"鹿":7467,"麋":7468,"麒":7469,"麗":7470,"麟":7471,"麥":7472,"麦":7473,"麩":7474,"麴":7475,"麵":7476,"麺":7477,"麻":7478,"麼":7479,"麿":7480,"黃":7481,"黄":7482,"黍":7483,"黎":7484,"黏":7485,"黐":7486,"黑":7487,"黒":7488,"默":7489,"黙":7490,"黛":7491,"點":7492,"黨":7493,"黯":7494,"鼎":7495,"鼓":7496,"鼠":7497,"鼻":7498,"齊":7499,"齋":7500,"齐":7501,"齡":7502,"齢":7503,"龄":7504,"龍":7505,"龐":7506,"龔":7507,"龙":7508,"龜":7509,"龟":7510,"ꀒ":7511,"ꀼ":7512,"ꁱ":7513,"ꂷ":7514,"ꆀ":7515,"ꆈ":7516,"ꌠ":7517,"ꎂ":7518,"ꓕ":7519,"ꓥ":7520,"ꓦ":7521,"ꙋ":7522,"ꙑ":7523,"Ꙓ":7524,"Ꙗ":7525,"ꙗ":7526,"Ꚋ":7527,"ꜣ":7528,"ꜥ":7529,"ꜩ":7530,"Ꝃ":7531,"ꝼ":7532,"ꞃ":7533,"ꞅ":7534,"꞊":7535,"ꞌ":7536,"Ɥ":7537,"ꞔ":7538,"ꞡ":7539,"ꞣ":7540,"ꞥ":7541,"ꞧ":7542,"Ɦ":7543,"Ɜ":7544,"Ɡ":7545,"Ɬ":7546,"Ɪ":7547,"Ʝ":7548,"Ʂ":7549,"ꟾ":7550,"꠆":7551,"ꠉ":7552,"ꠍ":7553,"ꠐ":7554,"ꠛ":7555,"ꠜ":7556,"ꠟ":7557,"ꠣ":7558,"ꠤ":7559,"ꦂ":7560,"ꦏ":7561,"ꦒ":7562,"ꦔ":7563,"ꦛ":7564,"ꦠ":7565,"ꦪ":7566,"ꦴ":7567,"ꦸ":7568,"ꦺ":7569,"ꦾ":7570,"ꨌ":7571,"ꨚ":7572,"ꩌ":7573,"ꭰ":7574,"ꭱ":7575,"ꭲ":7576,"ꭳ":7577,"ꭴ":7578,"ꭵ":7579,"ꭺ":7580,"가":7581,"각":7582,"간":7583,"감":7584,"강":7585,"개":7586,"객":7587,"거":7588,"건":7589,"검":7590,"게":7591,"견":7592,"경":7593,"계":7594,"고":7595,"곡":7596,"곤":7597,"공":7598,"과":7599,"관":7600,"광":7601,"괜":7602,"괴":7603,"교":7604,"구":7605,"국":7606,"군":7607,"궁":7608,"권":7609,"그":7610,"극":7611,"근":7612,"글":7613,"금":7614,"기":7615,"길":7616,"김":7617,"까":7618,"꺽":7619,"꽃":7620,"꿈":7621,"나":7622,"낙":7623,"날":7624,"남":7625,"낭":7626,"내":7627,"냐":7628,"너":7629,"널":7630,"넷":7631,"녀":7632,"년":7633,"념":7634,"노":7635,"녹":7636,"논":7637,"는":7638,"능":7639,"니":7640,"다":7641,"단":7642,"달":7643,"담":7644,"당":7645,"대":7646,"댁":7647,"댓":7648,"더":7649,"덕":7650,"데":7651,"도":7652,"돌":7653,"동":7654,"두":7655,"둑":7656,"둘":7657,"드":7658,"들":7659,"등":7660,"디":7661,"딱":7662,"때":7663,"똥":7664,"라":7665,"락":7666,"란":7667,"람":7668,"랑":7669,"래":7670,"량":7671,"러":7672,"럭":7673,"레":7674,"려":7675,"련":7676,"령":7677,"례":7678,"로":7679,"록":7680,"롱":7681,"룡":7682,"루":7683,"류":7684,"를":7685,"릉":7686,"리":7687,"린":7688,"림":7689,"립":7690,"마":7691,"만":7692,"말":7693,"망":7694,"맨":7695,"먹":7696,"멍":7697,"메":7698,"면":7699,"멸":7700,"명":7701,"모":7702,"목":7703,"뫼":7704,"묘":7705,"무":7706,"문":7707,"물":7708,"미":7709,"민":7710,"바":7711,"박":7712,"반":7713,"받":7714,"발":7715,"밥":7716,"방":7717,"백":7718,"버":7719,"벌":7720,"범":7721,"법":7722,"변":7723,"별":7724,"병":7725,"보":7726,"복":7727,"본":7728,"봉":7729,"부":7730,"북":7731,"불":7732,"븐":7733,"블":7734,"비":7735,"빈":7736,"빙":7737,"빠":7738,"뽀":7739,"쁜":7740,"쁠":7741,"사":7742,"삭":7743,"산":7744,"살":7745,"삼":7746,"삽":7747,"상":7748,"새":7749,"생":7750,"서":7751,"석":7752,"선":7753,"설":7754,"섬":7755,"섭":7756,"섯":7757,"성":7758,"세":7759,"션":7760,"소":7761,"속":7762,"손":7763,"송":7764,"수":7765,"숙":7766,"순":7767,"술":7768,"슈":7769,"스":7770,"승":7771,"시":7772,"식":7773,"신":7774,"실":7775,"심":7776,"십":7777,"싸":7778,"쌍":7779,"쓰":7780,"씨":7781,"아":7782,"악":7783,"안":7784,"암":7785,"압":7786,"앙":7787,"애":7788,"액":7789,"야":7790,"양":7791,"어":7792,"억":7793,"언":7794,"엄":7795,"에":7796,"엔":7797,"여":7798,"역":7799,"연":7800,"열":7801,"영":7802,"예":7803,"오":7804,"옥":7805,"온":7806,"올":7807,"왕":7808,"왜":7809,"외":7810,"요":7811,"용":7812,"우":7813,"욱":7814,"운":7815,"울":7816,"웅":7817,"원":7818,"월":7819,"위":7820,"윙":7821,"유":7822,"육":7823,"윤":7824,"율":7825,"으":7826,"은":7827,"을":7828,"음":7829,"읍":7830,"응":7831,"의":7832,"이":7833,"익":7834,"인":7835,"일":7836,"임":7837,"잎":7838,"자":7839,"작":7840,"잔":7841,"잡":7842,"장":7843,"재":7844,"쟁":7845,"적":7846,"전":7847,"절":7848,"점":7849,"젓":7850,"정":7851,"제":7852,"조":7853,"존":7854,"종":7855,"주":7856,"죽":7857,"줄":7858,"중":7859,"즈":7860,"즌":7861,"지":7862,"진":7863,"집":7864,"차":7865,"찬":7866,"찮":7867,"창":7868,"채":7869,"책":7870,"처":7871,"척":7872,"천":7873,"철":7874,"첩":7875,"첫":7876,"청":7877,"체":7878,"초":7879,"최":7880,"추":7881,"축":7882,"충":7883,"취":7884,"치":7885,"칠":7886,"침":7887,"카":7888,"칼":7889,"컨":7890,"컴":7891,"컵":7892,"켜":7893,"쿠":7894,"크":7895,"키":7896,"킬":7897,"타":7898,"탄":7899,"탈":7900,"태":7901,"택":7902,"터":7903,"텅":7904,"토":7905,"통":7906,"투":7907,"트":7908,"특":7909,"티":7910,"틸":7911,"팀":7912,"파":7913,"판":7914,"팡":7915,"패":7916,"퍼":7917,"페":7918,"편":7919,"평":7920,"포":7921,"폭":7922,"표":7923,"풀":7924,"품":7925,"풍":7926,"프":7927,"플":7928,"하":7929,"학":7930,"한":7931,"함":7932,"합":7933,"항":7934,"해":7935,"행":7936,"향":7937,"허":7938,"헌":7939,"험":7940,"헛":7941,"혁":7942,"현":7943,"혈":7944,"협":7945,"형":7946,"혜":7947,"호":7948,"홍":7949,"화":7950,"환":7951,"활":7952,"황":7953,"회":7954,"효":7955,"후":7956,"훈":7957,"훤":7958,"휜":7959,"휴":7960,"흑":7961,"흙":7962,"흥":7963,"희":7964,"히":7965,"":7966,"":7967,"":7968,"":7969,"ﬀ":7970,"ﬁ":7971,"ﬂ":7972,"ﬃ":7973,"ﬄ":7974,"ﬅ":7975,"ﬆ":7976,"ﬔ":7977,"ﬕ":7978,"ﬖ":7979,"ﬗ":7980,"﬩":7981,"ﮒ":7982,"ﮔ":7983,"ﯓ":7984,"ﯾ":7985,"﴾":7986,"﷼":7987,"︎":7988,"️":7989,"﹐":7990,"﹫":7991,"ﺀ":7992,"ﺂ":7993,"ﺆ":7994,"ﺍ":7995,"ﺎ":7996,"ﺐ":7997,"ﺑ":7998,"ﺔ":7999,"ﺕ":8000,"ﺖ":8001,"ﺗ":8002,"ﺘ":8003,"ﺝ":8004,"ﺥ":8005,"ﺧ":8006,"ﺩ":8007,"ﺪ":8008,"ﺭ":8009,"ﺮ":8010,"ﺰ":8011,"ﺱ":8012,"ﺳ":8013,"ﺵ":8014,"ﺶ":8015,"ﺷ":8016,"ﺹ":8017,"ﺺ":8018,"ﺻ":8019,"ﻁ":8020,"ﻂ":8021,"ﻃ":8022,"ﻉ":8023,"ﻋ":8024,"ﻍ":8025,"ﻑ":8026,"ﻒ":8027,"ﻓ":8028,"ﻙ":8029,"ﻛ":8030,"ﻝ":8031,"ﻞ":8032,"ﻟ":8033,"ﻠ":8034,"ﻡ":8035,"ﻢ":8036,"ﻤ":8037,"ﻥ":8038,"ﻦ":8039,"ﻧ":8040,"ﻨ":8041,"ﻫ":8042,"ﻭ":8043,"ﻮ":8044,"ﻱ":8045,"ﻲ":8046,"ﻳ":8047,"ﻴ":8048,"！":8049,"％":8050,"（":8051,"）":8052,"＊":8053,"＋":8054,"，":8055,"－":8056,"．":8057,"／":8058,"０":8059,"１":8060,"２":8061,"３":8062,"５":8063,"６":8064,"７":8065,"９":8066,"：":8067,"；":8068,"＝":8069,"？":8070,"＠":8071,"Ａ":8072,"Ｂ":8073,"Ｄ":8074,"Ｅ":8075,"Ｆ":8076,"Ｉ":8077,"Ｋ":8078,"Ｍ":8079,"Ｎ":8080,"Ｑ":8081,"Ｓ":8082,"Ｔ":8083,"Ｕ":8084,"［":8085,"］":8086,"＾":8087,"ｍ":8088,"｛":8089,"｜":8090,"｝":8091,"～":8092,"･":8093,"ｳ":8094,"ｶ":8095,"ｹ":8096,"ｼ":8097,"ｽ":8098,"ﾉ":8099,"ﾛ":8100,"ﾝ":8101,"ﾞ":8102,"ﾟ":8103,"￼":8104,"�":8105,"𐀅":8106,"𐀊":8107,"𐀒":8108,"𐀙":8109,"𐀪":8110,"𐅃":8111,"𐅄":8112,"𐅅":8113,"𐅆":8114,"𐅇":8115,"𐌑":8116,"𐌘":8117,"𐌙":8118,"𐌰":8119,"𐌱":8120,"𐌲":8121,"𐌴":8122,"𐌹":8123,"𐌺":8124,"𐌻":8125,"𐌼":8126,"𐌿":8127,"𐍂":8128,"𐍃":8129,"𐍈":8130,"𐎂":8131,"𐎓":8132,"𐎗":8133,"𐎘":8134,"𐎚":8135,"𐎜":8136,"𐎠":8137,"𐎡":8138,"𐎢":8139,"𐎣":8140,"𐎧":8141,"𐎪":8142,"𐎫":8143,"𐎮":8144,"𐎲":8145,"𐎴":8146,"𐎶":8147,"𐎹":8148,"𐎼":8149,"𐏁":8150,"𐏂":8151,"𐏈":8152,"𐏉":8153,"𐏋":8154,"𐏐":8155,"𐡀":8156,"𐡅":8157,"𐡉":8158,"𐡊":8159,"𐡌":8160,"𐡍":8161,"𐡎":8162,"𐡏":8163,"𐡐":8164,"𐡑":8165,"𐡓":8166,"𐡔":8167,"𐡕":8168,"𐤀":8169,"𐤁":8170,"𐤅":8171,"𐤉":8172,"𐤋":8173,"𐤌":8174,"𐤍":8175,"𐤎":8176,"𐤏":8177,"𐤐":8178,"𐤑":8179,"𐤒":8180,"𐤓":8181,"𐤔":8182,"𐤕":8183,"𐤖":8184,"𐤗":8185,"𐤘":8186,"𐤙":8187,"𐤟":8188,"𐬀":8189,"𐬌":8190,"𐬍":8191,"𐬗":8192,"𐬬":8193,"𐬭":8194,"𐰇":8195,"𐰛":8196,"𐰜":8197,"𐰰":8198,"𐰼":8199,"𐱅":8200,"𒀀":8201,"𒀭":8202,"𒀯":8203,"𒀳":8204,"𒂍":8205,"𒃼":8206,"𒄘":8207,"𒆠":8208,"𒆪":8209,"𒇉":8210,"𒈗":8211,"𒈥":8212,"𒈦":8213,"𒉺":8214,"𒊏":8215,"𒊭":8216,"𒋼":8217,"𒋾":8218,"𒌅":8219,"𒍝":8220,"𒍣":8221,"𓂋":8222,"𓇋":8223,"𓈗":8224,"𗂧":8225,"𗴂":8226,"𗴲":8227,"𗹭":8228,"𘜶":8229,"𝄪":8230,"𝄫":8231,"𝄳":8232,"𝅘":8233,"𝒞":8234,"𝒫":8235,"𝔐":8236,"𝔽":8237,"𝕆":8238,"𝖕":8239,"𝖙":8240,"𝛼":8241,"𝜷":8242,"🄯":8243,"🇦":8244,"🇧":8245,"🇨":8246,"🇩":8247,"🇪":8248,"🇫":8249,"🇬":8250,"🇲":8251,"🇷":8252,"🌐":8253,"🎑":8254,"🏆":8255,"👩":8256,"💩":8257,"😊":8258,"🚺":8259,"🜐":8260,"🝞":8261,"🤴":8262,"𡨸":8263,"𥝤":8264,"󠅳":8265,"es":8266,"en":8267,"on":8268,"de":8269,"an":8270,"le":8271,"re":8272,"ti":8273,"la":8274,"ur":8275,"is":8276,"er":8277,"in":8278,"qu":8279,"ar":8280,"ent":8281,"et":8282,"it":8283,"un":8284,"ou":8285,"au":8286,"or":8287,"te":8288,"les":8289,"om":8290,"il":8291,"tion":8292,"pr":8293,"des":8294,"tr":8295,"al":8296,"se":8297,"du":8298,"que":8299,"ch":8300,"par":8301,"ce":8302,"est":8303,"ment":8304,"ie":8305,"ant":8306,"po":8307,"ne":8308,"si":8309,"me":8310,"dé":8311,"ra":8312,"con":8313,"ans":8314,"une":8315,"ré":8316,"ta":8317,"ve":8318,"us":8319,"li":8320,"com":8321,"ma":8322,"di":8323,"as":8324,"ci":8325,"son":8326,"té":8327,"pe":8328,"ri":8329,"ée":8330,"our":8331,"dans":8332,"ation":8333,"oc":8334,"lle":8335,"ir":8336,"pl":8337,"ge":8338,"qui":8339,"ire":8340,"at":8341,"ac":8342,"ol":8343,"pour":8344,"és":8345,"ran":8346,"19":8347,"tre":8348,"sa":8349,"su":8350,"mp":8351,"sur":8352,"pro":8353,"=\"":8354,"ter":8355,"av":8356,"Le":8357,"ain":8358,"ale":8359,"tu":8360,"pu":8361,"aux":8362,"ro":8363,"ait":8364,"ux":8365,"id":8366,"ère":8367,"ver":8368,"La":8369,"ois":8370,"res":8371,"né":8372,"mi":8373,"ap":8374,"ont":8375,"plus":8376,"ff":8377,"vi":8378,"ille":8379,"20":8380,"ès":8381,"urs":8382,"ab":8383,"comm":8384,"ut":8385,"am":8386,"ques":8387,"ité":8388,"ex":8389,"vec":8390,"doc":8391,"che":8392,"ph":8393,"ag":8394,"ais":8395,"ue":8396,"end":8397,"for":8398,"avec":8399,"lu":8400,"mo":8401,"ces":8402,"Il":8403,"co":8404,"ine":8405,"ni":8406,"En":8407,"sont":8408,"cu":8409,"ins":8410,"per":8411,"mé":8412,"pé":8413,"og":8414,"ite":8415,"parti":8416,"ort":8417,"ig":8418,"nom":8419,"ser":8420,"ction":8421,"tes":8422,"pas":8423,"to":8424,"Les":8425,"lé":8426,"sion":8427,"el":8428,"ses":8429,"ous":8430,"sé":8431,"été":8432,"vo":8433,"ors":8434,"so":8435,"ion":8436,"bre":8437,"mon":8438,"pa":8439,"éta":8440,"lo":8441,"man":8442,"ique":8443,"ette":8444,"ic":8445,"ad":8446,"th":8447,").":8448,"Ch":8449,"elle":8450,"entre":8451,"aire":8452,"fin":8453,"ts":8454,"pre":8455,"),":8456,"dis":8457,"ouve":8458,"mes":8459,"gé":8460,"no":8461,"min":8462,"tique":8463,"ise":8464,"ble":8465,"cur":8466,"ers":8467,"mais":8468,"pré":8469,"ence":8470,"ord":8471,"tit":8472,"puis":8473,"deux":8474,"mar":8475,"lan":8476,"comme":8477,"tou":8478,"18":8479,"ér":8480,"premi":8481,"ien":8482,"près":8483,"tres":8484,"ure":8485,"cons":8486,"rou":8487,"ires":8488,"ég":8489,"gu":8490,"ob":8491,"cou":8492,"fait":8493,"\",":8494,"im":8495,"ssi":8496,"age":8497,"teur":8498,"url":8499,"title":8500,"200":8501,"=\"?":8502,"curid":8503,"\">":8504,"</":8505,"ten":8506,"don":8507,"ient":8508,"lui":8509,"ard":8510,"tions":8511,"tri":8512,"Fran":8513,"der":8514,"cour":8515,"ance":8516,"nes":8517,"lon":8518,"car":8519,"rit":8520,"lis":8521,"ants":8522,"tin":8523,"os":8524,"cer":8525,"alis":8526,"ys":8527,"rie":8528,"vent":8529,"tif":8530,"ments":8531,"ca":8532,"alement":8533,"ens":8534,"bli":8535,"cé":8536,"Par":8537,"ême":8538,"ven":8539,"commune":8540,"ons":8541,"jour":8542,"An":8543,"vers":8544,"prés":8545,"ème":8546,"ture":8547,"fon":8548,"pos":8549,"comp":8550,"Mar":8551,"cette":8552,"ul":8553,"fran":8554,"leur":8555,"tant":8556,"gran":8557,"tour":8558,"pla":8559,"tru":8560,"met":8561,"erre":8562,"sou":8563,"commun":8564,"201":8565,"mb":8566,"je":8567,"sous":8568,"ées":8569,"tor":8570,"inter":8571,"même":8572,"être":8573,"pi":8574,"rég":8575,"Sain":8576,"vis":8577,"ges":8578,"enne":8579,"por":8580,"dont":8581,"cla":8582,"cha":8583,"fa":8584,"fi":8585,"De":8586,"titu":8587,"çais":8588,"sit":8589,"ils":8590,"nées":8591,"ay":8592,"nouve":8593,"and":8594,"gne":8595,"présent":8596,"ville":8597,"olog":8598,"publi":8599,"op":8600,"tra":8601,"ang":8602,"nation":8603,"ères":8604,"gra":8605,"tement":8606,"pend":8607,"mis":8608,"év":8609,"iv":8610,"ante":8611,"um":8612,"née":8613,"na":8614,"était":8615,"Au":8616,"Saint":8617,"port":8618,"lie":8619,"ations":8620,"soci":8621,"nombre":8622,"int":8623,"français":8624,"\".":8625,"France":8626,"199":8627,"tis":8628,"cip":8629,"lement":8630,"aussi":8631,"17":8632,"fois":8633,"temp":8634,"cré":8635,"imp":8636,"be":8637,"ris":8638,"Ce":8639,"cul":8640,"où":8641,"ing":8642,"alors":8643,"après":8644,"ren":8645,"cor":8646,"em":8647,"contre":8648,"lors":8649,"do":8650,"aine":8651,"fut":8652,"ainsi":8653,"lles":8654,"autres":8655,"trav":8656,"uti":8657,"dent":8658,"peu":8659,"géné":8660,"mil":8661,"tal":8662,"tiv":8663,"diff":8664,"prin":8665,"da":8666,"jus":8667,"ines":8668,"également":8669,"mu":8670,"rec":8671,"grou":8672,"non":8673,"jou":8674,"iste":8675,"tiques":8676,"trois":8677,"eff":8678,"hu":8679,"ru":8680,"éri":8681,"peut":8682,"tive":8683,"éle":8684,"Elle":8685,"ner":8686,"illa":8687,"toire":8688,"partie":8689,"teurs":8690,"lation":8691,"ba":8692,"situ":8693,"Je":8694,"nement":8695,"éc":8696,"quel":8697,"cent":8698,"ense":8699,"ton":8700,"ouv":8701,"anci":8702,"tout":8703,"uni":8704,"In":8705,"enti":8706,"ix":8707,"Un":8708,"ures":8709,"Ar":8710,"ot":8711,"produ":8712,"région":8713,"ouver":8714,"col":8715,"his":8716,"emp":8717,"ités":8718,"ieurs":8719,"jet":8720,"nu":8721,"ales":8722,"10":8723,"suite":8724,"he":8725,"Al":8726,"pendant":8727,"lè":8728,"Com":8729,"ron":8730,"raph":8731,"avant":8732,"oy":8733,"ison":8734,"déb":8735,"cher":8736,"ali":8737,"ty":8738,"premier":8739,"années":8740,"15":8741,"oire":8742,"16":8743,"ograph":8744,"person":8745,"nat":8746,"utilis":8747,"dépar":8748,"pon":8749,"ber":8750,"198":8751,"très":8752,"tent":8753,"iques":8754,"anis":8755,"minis":8756,"fil":8757,"hom":8758,"mment":8759,"Éta":8760,"vient":8761,"ls":8762,"olu":8763,"pres":8764,"prend":8765,"rom":8766,"oir":8767,"vre":8768,"depuis":8769,"aff":8770,"rent":8771,"posi":8772,"va":8773,"org":8774,"trans":8775,"derni":8776,"aires":8777,"bi":8778,"mer":8779,"première":8780,"Con":8781,"Dans":8782,"ju":8783,"voir":8784,"cin":8785,"pes":8786,"ration":8787,"sig":8788,"groupe":8789,"lais":8790,"sy":8791,"uro":8792,"eu":8793,"équi":8794,"vie":8795,"its":8796,"appe":8797,"off":8798,"cri":8799,"plusieurs":8800,"gue":8801,"cours":8802,"poli":8803,"sta":8804,"alité":8805,"bas":8806,"jusqu":8807,"bles":8808,"197":8809,"hi":8810,"temps":8811,"ler":8812,"constru":8813,"ga":8814,"popu":8815,"dro":8816,"aut":8817,"nota":8818,"II":8819,"hab":8820,"all":8821,"ches":8822,"Jean":8823,"fer":8824,"certa":8825,"men":8826,"can":8827,"permet":8828,"».":8829,"Gu":8830,"ec":8831,"Cette":8832,"cap":8833,"14":8834,"sans":8835,"ari":8836,"00":8837,"leurs":8838,"bien":8839,"acc":8840,"illes":8841,"ppe":8842,"12":8843,"vir":8844,"grand":8845,"Ma":8846,"déc":8847,"ral":8848,"contr":8849,"lig":8850,"pou":8851,"ies":8852,"sse":8853,"ves":8854,"13":8855,"ill":8856,"moins":8857,"inté":8858,"hé":8859,"orig":8860,"sor":8861,"bu":8862,"forme":8863,"Su":8864,"département":8865,"vé":8866,"péri":8867,"thé":8868,"ième":8869,"import":8870,"pays":8871,"core":8872,"suiv":8873,"ai":8874,"notamment":8875,"clu":8876,"lin":8877,"dom":8878,"ode":8879,"196":8880,"tan":8881,"autre":8882,"nent":8883,"ène":8884,"cep":8885,"rer":8886,"mbre":8887,"aient":8888,"mée":8889,"tés":8890,"use":8891,"dou":8892,"tro":8893,"avait":8894,"appar":8895,"trait":8896,"Paris":8897,"iti":8898,"rés":8899,"princip":8900,"ili":8901,"loc":8902,"fam":8903,"able":8904,"mort":8905,"pri":8906,"cas":8907,"ctions":8908,"dit":8909,"place":8910,"lar":8911,"habit":8912,"forma":8913,"ché":8914,"année":8915,"velo":8916,"fic":8917,"avoir":8918,"mble":8919,"inf":8920,"étu":8921,"lit":8922,"eau":8923,"(\"":8924,"différ":8925,"jours":8926,"remp":8927,"ents":8928,"suc":8929,"lieu":8930,"laire":8931,"dre":8932,"»,":8933,"Se":8934,"part":8935,"On":8936,"onne":8937,"pris":8938,"Re":8939,"bé":8940,"ographie":8941,"conf":8942,"antes":8943,"alle":8944,"Jo":8945,"char":8946,"chan":8947,"Es":8948,"ass":8949,"cro":8950,"encore":8951,"ête":8952,"pli":8953,"dévelo":8954,"film":8955,"dition":8956,"position":8957,"esp":8958,"représent":8959,"rée":8960,"trouve":8961,"mat":8962,"rest":8963,"vin":8964,"monde":8965,"territ":8966,"ly":8967,"lise":8968,"vant":8969,"faire":8970,"lég":8971,"aur":8972,"arri":8973,"cle":8974,"gr":8975,"Mon":8976,"soit":8977,"ici":8978,"ologie":8979,"villa":8980,"début":8981,"Pi":8982,"sud":8983,"Une":8984,"uses":8985,"pec":8986,"zon":8987,"particu":8988,"française":8989,"elles":8990,"nord":8991,"public":8992,"indi":8993,"tel":8994,"50":8995,"Pa":8996,"ger":8997,"Char":8998,"aille":8999,"conn":9000,"constitu":9001,"Qu":9002,"œu":9003,"oli":9004,"bat":9005,"donc":9006,"grande":9007,"prési":9008,"partir":9009,"gar":9010,"teau":9011,"rap":9012,"coup":9013,"mand":9014,"envir":9015,"pose":9016,"dur":9017,"quat":9018,"réalis":9019,"fé":9020,"chi":9021,"194":9022,"sant":9023,"ath":9024,"tous":9025,"lier":9026,"mission":9027,"celle":9028,"ieux":9029,"ages":9030,"ôle":9031,"Sa":9032,"cal":9033,"main":9034,"olution":9035,"30":9036,"organis":9037,"Pour":9038,"sol":9039,"esse":9040,"secon":9041,"sance":9042,"ze":9043,"ences":9044,"ry":9045,"ban":9046,"celui":9047,"ha":9048,"guerre":9049,"nouveau":9050,"seu":9051,"roi":9052,"champ":9053,"ourg":9054,"Son":9055,"face":9056,"dus":9057,"Car":9058,"communes":9059,"équipe":9060,"cô":9061,"amp":9062,"environ":9063,"Lou":9064,"conom":9065,"let":9066,"gouver":9067,"exemp":9068,"sement":9069,"servi":9070,"bou":9071,"plo":9072,"épo":9073,"nie":9074,"Mi":9075,"prof":9076,"Après":9077,"arti":9078,"His":9079,"sent":9080,"située":9081,"nature":9082,"vision":9083,"consi":9084,"effet":9085,"rê":9086,"asse":9087,"ima":9088,"ains":9089,"sus":9090,"culture":9091,"lim":9092,"rè":9093,"yst":9094,"devient":9095,"Gran":9096,"famille":9097,"aul":9098,"médi":9099,"ieu":9100,"quatre":9101,"national":9102,"agne":9103,"population":9104,"enf":9105,"Ber":9106,"musi":9107,"États":9108,"tient":9109,"joue":9110,"cole":9111,"adminis":9112,"politique":9113,"Des":9114,"époque":9115,"igne":9116,"bil":9117,"quelques":9118,"tée":9119,"lée":9120,"rique":9121,"ia":9122,"Ro":9123,"cant":9124,"nationale":9125,"action":9126,"alb":9127,"spé":9128,"vol":9129,"éric":9130,"urent":9131,"jo":9132,"général":9133,"siè":9134,"selon":9135,"val":9136,"toute":9137,"tie":9138,"ît":9139,"dire":9140,"moy":9141,"améric":9142,"nouvelle":9143,"ente":9144,"ennes":9145,"hy":9146,"titre":9147,"vit":9148,"origine":9149,"Uni":9150,"mor":9151,"sin":9152,"Ré":9153,"étant":9154,"go":9155,"trou":9156,"long":9157,"..":9158,"nant":9159,"iel":9160,"club":9161,"plan":9162,"rale":9163,"élec":9164,"Bi":9165,"album":9166,"195":9167,"syst":9168,"Euro":9169,"nombreux":9170,"bar":9171,"souvent":9172,"èrent":9173,"anti":9174,"ép":9175,"Or":9176,"Mais":9177,"série":9178,"25":9179,"cy":9180,"village":9181,"voy":9182,"lex":9183,"proc":9184,"roy":9185,"saison":9186,"prise":9187,"ier":9188,"ja":9189,"tribu":9190,"décou":9191,"ède":9192,"dée":9193,"ps":9194,"territoire":9195,"étaient":9196,"histoire":9197,"tard":9198,"log":9199,"spéci":9200,"Dé":9201,"cit":9202,"tifs":9203,"défin":9204,"cis":9205,"dernier":9206,"bor":9207,"art":9208,"tend":9209,"èrement":9210,"ouest":9211,"24":9212,"fu":9213,"fils":9214,"mani":9215,"ligne":9216,"itaire":9217,"marqu":9218,"fonction":9219,"nage":9220,"Ne":9221,"écrit":9222,"mal":9223,"sep":9224,"économ":9225,"vic":9226,"ist":9227,"sions":9228,"occu":9229,"bo":9230,"centre":9231,"fr":9232,"peti":9233,"histor":9234,"ros":9235,"nive":9236,"État":9237,"posé":9238,"actu":9239,"direc":9240,"tech":9241,"lus":9242,"Ces":9243,"mondi":9244,"auté":9245,"deven":9246,"Louis":9247,"duc":9248,"ienne":9249,"exemple":9250,"ck":9251,"considé":9252,"bon":9253,"respon":9254,"déf":9255,"activ":9256,"prob":9257,"ane":9258,"Si":9259,"mois":9260,"arch":9261,"seau":9262,"eng":9263,"Tou":9264,"contin":9265,"rière":9266,"Pierre":9267,"Lu":9268,"formu":9269,"Ju":9270,"commer":9271,"reg":9272,"las":9273,"As":9274,"ple":9275,"ct":9276,"Gé":9277,"hui":9278,"sul":9279,"président":9280,"ail":9281,"société":9282,"conse":9283,"opé":9284,"193":9285,"nelle":9286,"sub":9287,"châ":9288,"dat":9289,"ret":9290,"ayant":9291,"termin":9292,"mie":9293,"terre":9294,"carac":9295,"graph":9296,"Histoire":9297,"nique":9298,"40":9299,"26":9300,"\")":9301,"père":9302,"land":9303,"23":9304,"ke":9305,"chef":9306,"ras":9307,"canton":9308,"28":9309,"ennent":9310,"Li":9311,"hau":9312,"od":9313,"sup":9314,"Unis":9315,"but":9316,"sour":9317,"reste":9318,"publique":9319,"nel":9320,"Pro":9321,"29":9322,"espè":9323,"Cor":9324,"tex":9325,"habitants":9326,"fem":9327,"cad":9328,"compte":9329,"projet":9330,"térie":9331,"gré":9332,"Ils":9333,"ensemble":9334,"atta":9335,"pouvoir":9336,"mont":9337,"développe":9338,"porte":9339,"taille":9340,"chez":9341,"isme":9342,"gen":9343,"ric":9344,"Jac":9345,"Bar":9346,"eux":9347,"sc":9348,"test":9349,"Sel":9350,"cien":9351,"Mont":9352,"doit":9353,"27":9354,"Po":9355,"période":9356,"ori":9357,"sec":9358,"ailleurs":9359,"succ":9360,"Europe":9361,"associ":9362,"Ri":9363,"éli":9364,"Di":9365,"bes":9366,"ôt":9367,"milli":9368,"cho":9369,"Co":9370,"vres":9371,"rela":9372,"orte":9373,"euro":9374,"univers":9375,"tives":9376,"Ph":9377,"connu":9378,"tration":9379,"formation":9380,"élé":9381,"peuvent":9382,"atte":9383,"muni":9384,"60":9385,"Du":9386,"ensuite":9387,"gouvernement":9388,"So":9389,"Can":9390,"uel":9391,"concer":9392,"ancien":9393,"certains":9394,"Mo":9395,"instal":9396,"point":9397,"ital":9398,"autor":9399,"compag":9400,"nor":9401,"cau":9402,"système":9403,"ître":9404,"cir":9405,"sera":9406,"dès":9407,"pra":9408,"urb":9409,"pen":9410,"ites":9411,"niveau":9412,"dépend":9413,"ond":9414,"réf":9415,"jeu":9416,"possi":9417,"camp":9418,"fo":9419,"pression":9420,"europé":9421,"vari":9422,"auc":9423,"ellement":9424,"conser":9425,"éra":9426,"quit":9427,"beau":9428,"rôle":9429,"afin":9430,"champion":9431,"aug":9432,"tivement":9433,"nal":9434,"Selon":9435,"mise":9436,"ert":9437,"jourd":9438,"rait":9439,"80":9440,"ki":9441,"br":9442,"11":9443,"toujours":9444,"église":9445,"tière":9446,"trie":9447,"plu":9448,"90":9449,"sage":9450,"illi":9451,"entes":9452,"dio":9453,"mbres":9454,"tom":9455,"çon":9456,"ach":9457,"dev":9458,"télé":9459,"crip":9460,"chaque":9461,"tré":9462,"vée":9463,"mande":9464,"Lors":9465,"Ge":9466,"deuxième":9467,"aissance":9468,"cel":9469,"durant":9470,"rend":9471,"bourg":9472,"cident":9473,"cs":9474,"voit":9475,"thè":9476,"inte":9477,"cinq":9478,"tron":9479,"gement":9480,"senti":9481,"retour":9482,"ète":9483,"unes":9484,"iens":9485,"ref":9486,"70":9487,"cture":9488,"ilo":9489,"site":9490,"âce":9491,"mas":9492,"explo":9493,"ile":9494,"reç":9495,"mine":9496,"capit":9497,"nombreuses":9498,"entra":9499,"Ang":9500,"formula":9501,"seul":9502,"match":9503,"cée":9504,"ka":9505,"ds":9506,"tation":9507,"dement":9508,"appel":9509,"Ni":9510,"formula_":9511,"édi":9512,"ports":9513,"ateur":9514,"phy":9515,"fac":9516,"Rom":9517,"colle":9518,"ong":9519,"œuvre":9520,"artis":9521,"tenu":9522,"cli":9523,"Ca":9524,"éd":9525,"istes":9526,"Ou":9527,"nommé":9528,"lou":9529,"Charles":9530,"toutes":9531,"bel":9532,"provin":9533,"gues":9534,"Cou":9535,"fais":9536,"aines":9537,"succès":9538,"Nord":9539,"uri":9540,"The":9541,"quer":9542,"hô":9543,"homme":9544,"meille":9545,"compos":9546,"armée":9547,"mus":9548,"travail":9549,"bâ":9550,"No":9551,"hn":9552,"ordre":9553,"partici":9554,"rage":9555,"rempla":9556,"ano":9557,"membres":9558,"ables":9559,"effec":9560,"indus":9561,"production":9562,"Ad":9563,"vue":9564,"tte":9565,"qué":9566,"diri":9567,"the":9568,"tég":9569,"cet":9570,"oise":9571,"35":9572,"quelle":9573,"gram":9574,"Val":9575,"relig":9576,"ign":9577,"construction":9578,"mouve":9579,"xe":9580,"llement":9581,"prises":9582,"recher":9583,"raison":9584,"mul":9585,"Hen":9586,"six":9587,"château":9588,"ances":9589,"ancienne":9590,"proche":9591,"èle":9592,"48":9593,"dy":9594,"ètres":9595,"propri":9596,"ible":9597,"tric":9598,"sau":9599,"Alle":9600,"fs":9601,"qua":9602,"Man":9603,"Grand":9604,"ho":9605,"table":9606,"déci":9607,"st":9608,"type":9609,"Pe":9610,"objet":9611,"premiers":9612,"droit":9613,"tien":9614,"som":9615,"étab":9616,"périe":9617,"45":9618,"isse":9619,"Bel":9620,"aujourd":9621,"terme":9622,"icie":9623,"dra":9624,"duit":9625,"aliste":9626,"laires":9627,"aume":9628,"trouv":9629,"tère":9630,"ition":9631,"taux":9632,"développement":9633,"grâce":9634,"Franç":9635,"jor":9636,"personnes":9637,"ints":9638,"Ba":9639,"ock":9640,"Tour":9641,"supérie":9642,"emb":9643,"bois":9644,"phon":9645,"sive":9646,"36":9647,"municip":9648,"Ital":9649,"ball":9650,"tenir":9651,"parfois":9652,"prendre":9653,"fort":9654,"vain":9655,"simp":9656,"bres":9657,"îne":9658,"Ver":9659,"75":9660,"pan":9661,"ceux":9662,"prom":9663,"ologique":9664,"donne":9665,"rapi":9666,"21":9667,"dés":9668,"mondiale":9669,"Ég":9670,"service":9671,"mique":9672,"Rob":9673,"passe":9674,"loi":9675,"Sud":9676,"là":9677,"dic":9678,"ception":9679,"base":9680,"agit":9681,"étr":9682,"nav":9683,"sein":9684,"généra":9685,"89":9686,"seigne":9687,"combat":9688,"ko":9689,"laquelle":9690,"corps":9691,"annon":9692,"existe":9693,"évolution":9694,"Cla":9695,"tradition":9696,"apon":9697,"quant":9698,"particuli":9699,"ony":9700,"rési":9701,"furent":9702,"communauté":9703,"ues":9704,"190":9705,"van":9706,"œur":9707,"ût":9708,"création":9709,"Th":9710,"tier":9711,"iller":9712,"22":9713,"trice":9714,"2010":9715,"priv":9716,"bilité":9717,"cles":9718,"by":9719,"hommes":9720,"colon":9721,"agri":9722,"rue":9723,"décla":9724,"vier":9725,"enfants":9726,"jà":9727,"Is":9728,"Bo":9729,"vale":9730,"Sur":9731,"of":9732,"my":9733,"école":9734,"zone":9735,"2000":9736,"fication":9737,"travers":9738,"ritan":9739,"tagne":9740,"version":9741,"39":9742,"46":9743,"Biographie":9744,"io":9745,"aud":9746,"Guerre":9747,"rois":9748,"nés":9749,"présente":9750,"Pre":9751,"regis":9752,"cité":9753,"mag":9754,"crit":9755,"dévelop":9756,"érence":9757,"piè":9758,"ément":9759,"titude":9760,"net":9761,"ame":9762,"fra":9763,"François":9764,"influ":9765,"Roy":9766,"major":9767,"jeune":9768,"tête":9769,"blan":9770,"route":9771,"second":9772,"déjà":9773,"Me":9774,"gent":9775,"49":9776,"situé":9777,"carrière":9778,"néces":9779,"rier":9780,"finale":9781,"signi":9782,"aus":9783,"Per":9784,"tait":9785,"Depuis":9786,"38":9787,"rejo":9788,"37":9789,"han":9790,"troisième":9791,"mari":9792,"poss":9793,"ions":9794,"rus":9795,"tar":9796,"sort":9797,"47":9798,"rant":9799,"membre":9800,"Paul":9801,"four":9802,"ade":9803,"beaucoup":9804,"surtout":9805,"inc":9806,"âge":9807,"aise":9808,"île":9809,"théor":9810,"indre":9811,"az":9812,"lut":9813,"arrê":9814,"tenant":9815,"musique":9816,"compl":9817,"lor":9818,"aurait":9819,"écu":9820,"régu":9821,"bert":9822,"pren":9823,"mod":9824,"ats":9825,"Bou":9826,"fie":9827,"rapport":9828,"iter":9829,"comman":9830,"fré":9831,"téra":9832,"Mal":9833,"fig":9834,"Italie":9835,"rév":9836,"classe":9837,"éro":9838,"Marie":9839,"résul":9840,"Hu":9841,"Be":9842,"Cas":9843,"abord":9844,"John":9845,"bâti":9846,"petit":9847,"correspon":9848,"rin":9849,"distin":9850,"Amé":9851,"éch":9852,"Cer":9853,"gie":9854,"For":9855,"Col":9856,"program":9857,"ate":9858,"cription":9859,"particulier":9860,"réseau":9861,"ession":9862,"esti":9863,"épou":9864,"Ain":9865,"ny":9866,"terra":9867,"New":9868,"accue":9869,"dix":9870,"maire":9871,"font":9872,"Chris":9873,"sait":9874,"niques":9875,"appli":9876,"longue":9877,"syn":9878,"devant":9879,"quent":9880,"fond":9881,"grands":9882,"expli":9883,"Lo":9884,"compé":9885,"2006":9886,"alisation":9887,"bus":9888,"isation":9889,"neu":9890,"meur":9891,"langue":9892,"initi":9893,"cadre":9894,"maison":9895,"autour":9896,"III":9897,"conna":9898,"Cependant":9899,"études":9900,"princi":9901,"2007":9902,"jec":9903,"date":9904,"85":9905,"patri":9906,"ole":9907,"Ren":9908,"ina":9909,"Jacques":9910,"ciné":9911,"Géographie":9912,"sens":9913,"administra":9914,"traite":9915,"stru":9916,"téris":9917,"taire":9918,"Bre":9919,"cependant":9920,"dernière":9921,"labor":9922,"Sy":9923,"prix":9924,"produit":9925,"propre":9926,"ith":9927,"len":9928,"65":9929,"moder":9930,"occup":9931,"côté":9932,"Plus":9933,"espèces":9934,"bal":9935,"ami":9936,"ime":9937,"seulement":9938,"magne":9939,"fille":9940,"2015":9941,"milieu":9942,"plupart":9943,"obser":9944,"Premi":9945,"différents":9946,"2014":9947,"Sh":9948,"Pu":9949,"lent":9950,"venir":9951,"are":9952,"die":9953,"écri":9954,"suff":9955,"Mé":9956,"chans":9957,"clas":9958,"feu":9959,"alli":9960,"anglais":9961,"voie":9962,"origin":9963,"sac":9964,"âtre":9965,"Ses":9966,"Vi":9967,"province":9968,"chel":9969,"Rou":9970,"unique":9971,"parmi":9972,"aît":9973,"certaines":9974,"mère":9975,"Fer":9976,"rencontre":9977,"état":9978,"illet":9979,"désig":9980,"mom":9981,"Af":9982,"chev":9983,"roman":9984,"classi":9985,"guer":9986,"uve":9987,"occa":9988,"livre":9989,"étudi":9990,"mouvement":9991,"physi":9992,"quarti":9993,"Bu":9994,"marque":9995,"oul":9996,"Ainsi":9997,"2008":9998,"possible":9999,"Ser":10000,"pie":10001,"administration":10002,"88":10003,"liste":10004,"Geor":10005,"ocra":10006,"travaux":10007,"Phili":10008,"phe":10009,"orient":10010,"super":10011,"appelé":10012,"effectu":10013,"ada":10014,"utilisé":10015,"spec":10016,"\"),":10017,"auche":10018,"lance":10019,"cause":10020,"gée":10021,"Br":10022,"signe":10023,"court":10024,"industrie":10025,"ude":10026,"He":10027,"reur":10028,"semble":10029,"saire":10030,"sty":10031,"essenti":10032,"tur":10033,"ara":10034,"Henri":10035,"moyenne":10036,"donné":10037,"ministre":10038,"ries":10039,"érie":10040,"33":10041,"enregis":10042,"statu":10043,"activité":10044,"2005":10045,"eur":10046,"important":10047,"sen":10048,"tandis":10049,"Inter":10050,"présence":10051,"chant":10052,"ets":10053,"ument":10054,"texte":10055,"xim":10056,"Esp":10057,"etc":10058,"Nouve":10059,"ana":10060,"celles":10061,"bri":10062,"mettre":10063,"commerci":10064,"Sé":10065,"direction":10066,"illon":10067,"trop":10068,"ditions":10069,"formes":10070,"189":10071,"vention":10072,"otball":10073,"cr":10074,"Ex":10075,"page":10076,"ivent":10077,"officie":10078,"pouv":10079,")\">":10080,"archite":10081,"poste":10082,"possède":10083,"Ra":10084,"moine":10085,"gt":10086,"yon":10087,"villes":10088,"issu":10089,"quo":10090,"crois":10091,"manière":10092,"augment":10093,"littéra":10094,"anne":10095,"aly":10096,"dispar":10097,"change":10098,"allée":10099,"itaires":10100,"tels":10101,"femme":10102,"66":10103,"généralement":10104,"Gar":10105,"commen":10106,"britan":10107,"Allemagne":10108,"Comm":10109,"militaire":10110,"mala":10111,"dan":10112,"anim":10113,"siège":10114,"conseil":10115,"allemand":10116,"numé":10117,"pace":10118,"rat":10119,"sais":10120,"étrang":10121,"...":10122,"ving":10123,"publié":10124,"précé":10125,"sée":10126,"profession":10127,"graphie":10128,"domaine":10129,"fe":10130,"77":10131,"correspond":10132,"établis":10133,"découver":10134,"tine":10135,"République":10136,"Hau":10137,"jamais":10138,"Bas":10139,"Emp":10140,"San":10141,"différentes":10142,"commence":10143,"premières":10144,"suivante":10145,"cela":10146,"américain":10147,"principalement":10148,"lations":10149,"grandes":10150,"scène":10151,"55":10152,"2004":10153,"gres":10154,"ork":10155,"points":10156,"millions":10157,"tées":10158,"êt":10159,"quali":10160,"faite":10161,"consé":10162,"oly":10163,"haut":10164,"Cha":10165,"Champ":10166,"total":10167,"championnat":10168,"sept":10169,"oit":10170,"anisme":10171,"domin":10172,"1990":10173,"lequel":10174,"petite":10175,"Tr":10176,"179":10177,"limit":10178,"due":10179,"caractéris":10180,"importante":10181,"avaient":10182,"occasion":10183,"ajou":10184,"2009":10185,"aban":10186,"Coupe":10187,"Cons":10188,"Fin":10189,"69":10190,"endant":10191,"division":10192,"pare":10193,"avor":10194,"ignement":10195,"Dur":10196,"Cour":10197,"pales":10198,"seule":10199,"ak":10200,"éche":10201,"2011":10202,"aye":10203,"adap":10204,"omé":10205,"bra":10206,"sal":10207,"Mor":10208,"2012":10209,"bataille":10210,"uments":10211,"naire":10212,"gi":10213,"del":10214,"mation":10215,"accord":10216,"parois":10217,"succes":10218,"ore":10219,"montre":10220,"dam":10221,"économique":10222,"créé":10223,"lait":10224,"til":10225,"Empire":10226,"résulta":10227,"seconde":10228,"serait":10229,"coles":10230,"jan":10231,"sci":10232,"frère":10233,"lève":10234,"Conse":10235,"Avec":10236,"87":10237,"rées":10238,"bec":10239,"tage":10240,"èmes":10241,"respec":10242,"demande":10243,"préf":10244,"moment":10245,"élu":10246,"And":10247,"chois":10248,"université":10249,"ènes":10250,"nis":10251,"béné":10252,"élections":10253,"44":10254,"épis":10255,"gauche":10256,"gh":10257,"intérie":10258,"nouvelles":10259,"mesure":10260,"expéri":10261,"personne":10262,"lées":10263,"matique":10264,"aucune":10265,"aide":10266,"Nor":10267,"autom":10268,"fédé":10269,"unité":10270,"multi":10271,"trib":10272,"gon":10273,"tures":10274,"Michel":10275,"ute":10276,"Che":10277,"abs":10278,"recherche":10279,"Loire":10280,"séle":10281,"Angle":10282,"cat":10283,"fonda":10284,"seigneur":10285,"gaz":10286,"sorti":10287,"vu":10288,"exploit":10289,"tiers":10290,"divers":10291,"indépend":10292,"quis":10293,"retrouve":10294,"cation":10295,"clé":10296,"dém":10297,"quand":10298,"suivant":10299,"Lé":10300,"Angleterre":10301,"grec":10302,"érit":10303,"lac":10304,"sujet":10305,"auteur":10306,"victoire":10307,"instru":10308,"Her":10309,"pont":10310,"prit":10311,"historique":10312,"façon":10313,"Alex":10314,"fab":10315,"ao":10316,"ication":10317,"67":10318,"Beau":10319,"empl":10320,"lorsque":10321,"atoire":10322,"icile":10323,"cath":10324,"obtient":10325,"Dis":10326,"vois":10327,"rite":10328,"ablement":10329,"lande":10330,"mot":10331,"At":10332,"vra":10333,"politiques":10334,"phé":10335,"bin":10336,"organisation":10337,"réser":10338,"prison":10339,"comte":10340,"Har":10341,"Tra":10342,"Sch":10343,"arrière":10344,"circu":10345,"consac":10346,"ards":10347,"Est":10348,"hors":10349,"gare":10350,"méth":10351,"composé":10352,"diver":10353,"intérê":10354,"lant":10355,"vière":10356,"reven":10357,"Parti":10358,"célè":10359,"\").":10360,"modi":10361,"oyen":10362,"station":10363,"1980":10364,"Conseil":10365,"services":10366,"femmes":10367,"2003":10368,"Ben":10369,"poser":10370,"34":10371,"ctu":10372,"espace":10373,"collec":10374,"uré":10375,"mê":10376,"Robert":10377,"adi":10378,"ace":10379,"réguli":10380,"opéra":10381,"progres":10382,"sources":10383,"dessin":10384,"particip":10385,"odes":10386,"style":10387,"finalement":10388,"Union":10389,"duction":10390,"institu":10391,"pelle":10392,"nous":10393,"football":10394,"Mer":10395,"particulièrement":10396,"iloso":10397,"joueur":10398,"san":10399,"trac":10400,"rapidement":10401,"lt":10402,"indivi":10403,"assez":10404,"interpr":10405,"iden":10406,"bour":10407,"étude":10408,"aison":10409,"gal":10410,"groupes":10411,"éner":10412,"idé":10413,"troupes":10414,"isla":10415,"sis":10416,"adop":10417,"2020":10418,"68":10419,"genre":10420,"huma":10421,"ann":10422,"participe":10423,"estiv":10424,"cientif":10425,"nages":10426,"pin":10427,"couver":10428,"Pays":10429,"pereur":10430,"2017":10431,"2002":10432,"Châ":10433,"pein":10434,"air":10435,"vallée":10436,"pous":10437,"viennent":10438,"ae":10439,"opération":10440,"droite":10441,"catholi":10442,"agn":10443,"ok":10444,"Rus":10445,"oires":10446,"79":10447,"ril":10448,"mai":10449,"més":10450,"juin":10451,"pay":10452,"huit":10453,"era":10454,"mou":10455,"tran":10456,"pratique":10457,"yp":10458,"Sta":10459,"prim":10460,"latin":10461,"suit":10462,"scientif":10463,"Deux":10464,"59":10465,"exis":10466,"arron":10467,"terres":10468,"amé":10469,"décis":10470,"réun":10471,"Philippe":10472,"principal":10473,"vation":10474,"Te":10475,"évê":10476,"viol":10477,"2013":10478,"1970":10479,"continu":10480,"ative":10481,"chemin":10482,"apparti":10483,"ani":10484,"180":10485,"favor":10486,"assu":10487,"règ":10488,"endre":10489,"lot":10490,"trouver":10491,"Qué":10492,"altitude":10493,"èse":10494,"1999":10495,"mées":10496,"Certa":10497,"Dav":10498,"répon":10499,"épouse":10500,"œuvres":10501,"lois":10502,"we":10503,"remporte":10504,"tale":10505,"ôme":10506,"connue":10507,"Canada":10508,"responsa":10509,"cre":10510,"Ag":10511,"2001":10512,"ève":10513,"Ste":10514,"accep":10515,"Espagne":10516,"tégor":10517,"émission":10518,"Bri":10519,"philoso":10520,"symb":10521,"ologiques":10522,"nos":10523,"jeunes":10524,"fier":10525,"faut":10526,"tienne":10527,"exécu":10528,"Cam":10529,"saint":10530,"ini":10531,"els":10532,"vas":10533,"()":10534,"Afrique":10535,"mars":10536,"Bor":10537,"libé":10538,"El":10539,"donner":10540,"sements":10541,"éléments":10542,"sie":10543,"tembre":10544,"activités":10545,"York":10546,"affir":10547,"2016":10548,"her":10549,"Pla":10550,"maje":10551,"64":10552,"construit":10553,"rac":10554,"lés":10555,"Aus":10556,"har":10557,"fit":10558,"faisant":10559,"réparti":10560,"zo":10561,"parc":10562,"décide":10563,"demi":10564,"prote":10565,"précis":10566,"den":10567,"Ori":10568,"alistes":10569,"Bon":10570,"élection":10571,"Sainte":10572,"déce":10573,"international":10574,"Ab":10575,"positions":10576,"zones":10577,"abb":10578,"stitu":10579,"situation":10580,"films":10581,"onymie":10582,"Gen":10583,"force":10584,"exer":10585,"tempor":10586,"Sal":10587,"capitale":10588,"pol":10589,"septembre":10590,"juillet":10591,"données":10592,"dirige":10593,"IV":10594,"personnage":10595,"valeur":10596,"Lig":10597,"Jose":10598,"large":10599,"entreprise":10600,"comprend":10601,"pati":10602,"rien":10603,"éan":10604,"annonce":10605,"sivement":10606,"kil":10607,"détru":10608,"quartier":10609,"quin":10610,"vais":10611,"compéti":10612,"technique":10613,"clo":10614,"mention":10615,"défini":10616,"Mas":10617,"sés":10618,"yme":10619,"psy":10620,"porter":10621,"espèce":10622,"Comme":10623,"ley":10624,"Québec":10625,"plant":10626,"ares":10627,"cos":10628,"irs":10629,"fou":10630,"sema":10631,"nouveaux":10632,"aliment":10633,"Pri":10634,"dence":10635,"sépar":10636,"réus":10637,"destin":10638,"méde":10639,"erie":10640,"propriété":10641,"démie":10642,"bonne":10643,"populaire":10644,"produits":10645,"31":10646,"contrôle":10647,"source":10648,"plut":10649,"resse":10650,"Rome":10651,"chin":10652,"gique":10653,"reçoit":10654,"Top":10655,"Na":10656,"fusion":10657,"Ger":10658,"uelle":10659,"catégor":10660,"édition":10661,"faible":10662,"fonde":10663,"référence":10664,"charge":10665,"32":10666,"outre":10667,"proté":10668,"Dan":10669,"journ":10670,"janvier":10671,"alog":10672,"extr":10673,"ama":10674,"verse":10675,"fique":10676,"cier":10677,"rur":10678,"désor":10679,"britannique":10680,"ficie":10681,"Poli":10682,"apparaît":10683,"informa":10684,"arrondis":10685,"aucun":10686,"droits":10687,"voix":10688,"ardin":10689,"hon":10690,"Église":10691,"seur":10692,"démocra":10693,"candi":10694,"tempéra":10695,"cteur":10696,"urbaine":10697,"départ":10698,"désormais":10699,"dor":10700,"intro":10701,"alisme":10702,"neur":10703,"tobre":10704,"acité":10705,"sortie":10706,"cinéma":10707,"tral":10708,"sées":10709,"ège":10710,"Pas":10711,"travaille":10712,"voyage":10713,"rages":10714,"Secon":10715,"américaine":10716,"omb":10717,"directeur":10718,"volon":10719,"grès":10720,"bord":10721,"Révolution":10722,"dépu":10723,"influence":10724,"forte":10725,"européenne":10726,"sélection":10727,"hor":10728,"spor":10729,"quête":10730,"permettant":10731,"vou":10732,"marché":10733,"plutôt":10734,"défense":10735,"wa":10736,"78":10737,"veur":10738,"Joseph":10739,"fron":10740,"thèse":10741,"passage":10742,"gag":10743,"SA":10744,"téri":10745,"organ":10746,"entrée":10747,"quée":10748,"Ru":10749,"créée":10750,"Bretagne":10751,"modèle":10752,"100":10753,"formé":10754,"précédent":10755,"employ":10756,"anciens":10757,"régions":10758,"chac":10759,"Univers":10760,"empereur":10761,"Ouest":10762,"Martin":10763,"1960":10764,"traver":10765,"provo":10766,"tifi":10767,"toires":10768,"connaissance":10769,"Ac":10770,"octobre":10771,"Nouvelle":10772,"ox":10773,"dérou":10774,"décembre":10775,"reli":10776,"dique":10777,"atteint":10778,"étend":10779,"chée":10780,"ick":10781,"Japon":10782,"Bour":10783,"révolution":10784,"bac":10785,"compagnie":10786,"objec":10787,"principaux":10788,"ibles":10789,"article":10790,"cen":10791,"campagne":10792,"théâtre":10793,"Bien":10794,"rivière":10795,"gin":10796,"auprès":10797,"vage":10798,"dol":10799,"dure":10800,"poly":10801,"Jus":10802,"entraîne":10803,"chré":10804,"ordon":10805,"cale":10806,"Tur":10807,"joueurs":10808,"arrivée":10809,"patrimoine":10810,"mage":10811,"royaume":10812,"majorité":10813,"ateurs":10814,"bur":10815,"dite":10816,"alités":10817,"assur":10818,"malgré":10819,"Grande":10820,"ham":10821,"moyen":10822,"jeux":10823,"exist":10824,"kilom":10825,"za":10826,"vingt":10827,"ney":10828,"garde":10829,"libre":10830,"utilisation":10831,"Moyen":10832,"ker":10833,"locale":10834,"programme":10835,"août":10836,"Mu":10837,"istance":10838,"meilleur":10839,"analy":10840,"mant":10841,"situe":10842,"connaît":10843,"one":10844,"itu":10845,"générale":10846,"double":10847,"appartient":10848,"eth":10849,"secteur":10850,"ètre":10851,"Sou":10852,"rir":10853,"sex":10854,"acteur":10855,"itié":10856,"sui":10857,"candidat":10858,"mit":10859,"Pendant":10860,"propos":10861,"tance":10862,"manif":10863,"cule":10864,"lignes":10865,"surface":10866,"dessus":10867,"vés":10868,"ther":10869,"Gra":10870,"commis":10871,"telle":10872,"Durant":10873,"Entre":10874,"terrain":10875,"gus":10876,"(),":10877,"specta":10878,"siècle":10879,"Ur":10880,"Dom":10881,"tice":10882,"quence":10883,"complex":10884,"1998":10885,"57":10886,"Bé":10887,"intérieur":10888,"estival":10889,"simple":10890,"pit":10891,"zi":10892,"évé":10893,"inspi":10894,"ambre":10895,"Bern":10896,"iteur":10897,"critique":10898,"idée":10899,"moitié":10900,"curité":10901,"physique":10902,"détermin":10903,"hou":10904,"Wal":10905,"Cul":10906,"ône":10907,"essa":10908,"ratta":10909,"Cet":10910,"accompag":10911,"attribu":10912,"nove":10913,"amen":10914,"',":10915,"Vic":10916,"iné":10917,"desser":10918,"Ed":10919,"environnement":10920,"esseur":10921,"rouge":10922,"financi":10923,"fié":10924,"tente":10925,"mètres":10926,"Thé":10927,"iles":10928,"Hy":10929,"58":10930,"nels":10931,"consom":10932,"hiver":10933,"Amérique":10934,"berg":10935,"ome":10936,"avril":10937,"(«":10938,"chanson":10939,"condu":10940,"ël":10941,"intérêt":10942,"mêmes":10943,"ault":10944,"blie":10945,"commerce":10946,"conditions":10947,"fondé":10948,"isant":10949,"ront":10950,"phes":10951,"43":10952,"internationale":10953,"gl":10954,"entour":10955,"Mac":10956,"électr":10957,"Trans":10958,"quet":10959,"gestion":10960,"sons":10961,"structure":10962,"bande":10963,"édé":10964,"cend":10965,"Vo":10966,"considéré":10967,"métro":10968,"former":10969,"lieux":10970,"termine":10971,"Chine":10972,"conseiller":10973,"accès":10974,"line":10975,"2018":10976,"restaur":10977,"çant":10978,"We":10979,"tention":10980,"af":10981,"emplo":10982,"rempor":10983,"Soci":10984,"association":10985,"Ville":10986,"établi":10987,"63":10988,"Sar":10989,"honne":10990,"Claude":10991,"matiques":10992,"étique":10993,"dispu":10994,"via":10995,"inscrit":10996,"oles":10997,"novembre":10998,"Bra":10999,"nements":11000,"ya":11001,"toutefois":11002,"chés":11003,"Oc":11004,"passer":11005,"usage":11006,"istique":11007,"question":11008,"noms":11009,"cra":11010,"qualité":11011,"passé":11012,"Mad":11013,"envoy":11014,"traité":11015,"distribu":11016,"Lond":11017,"pha":11018,"presque":11019,"Liste":11020,"André":11021,"petits":11022,"Bourg":11023,"phie":11024,"conta":11025,"ames":11026,"ino":11027,"ographique":11028,"forces":11029,"lorsqu":11030,"Ty":11031,"célèbre":11032,"témo":11033,"derniers":11034,"supérieur":11035,"cés":11036,"civ":11037,"dispose":11038,"Anti":11039,"relie":11040,"tisme":11041,"landais":11042,"connais":11043,"Dès":11044,"Cal":11045,"intitu":11046,"Londres":11047,"abbaye":11048,"naissance":11049,"sco":11050,"chard":11051,"réalisé":11052,"êtes":11053,"proxim":11054,"heure":11055,"Parmi":11056,"ples":11057,"pièces":11058,"diffus":11059,"nier":11060,"ume":11061,"actions":11062,"extérie":11063,"dipl":11064,"illus":11065,"Ter":11066,"rive":11067,"mblée":11068,"heures":11069,"Politique":11070,"devenir":11071,"limite":11072,"devenu":11073,"prenant":11074,"pron":11075,"Terre":11076,"ide":11077,"céré":11078,"circons":11079,"proximité":11080,"Go":11081,"aéro":11082,"nais":11083,"équ":11084,"autant":11085,"regroupe":11086,"essentiellement":11087,"Georges":11088,"titres":11089,"exception":11090,"centrale":11091,"Don":11092,"arrondissement":11093,"nas":11094,"occident":11095,"Lan":11096,"lace":11097,"olymp":11098,"lien":11099,"Cro":11100,"quels":11101,"actuelle":11102,"Nico":11103,"Seconde":11104,"alier":11105,"000":11106,"loin":11107,"améli":11108,"56":11109,"déta":11110,"Âge":11111,"1997":11112,"Ti":11113,"pul":11114,"argent":11115,"mode":11116,"vérit":11117,"refus":11118,"1995":11119,"principale":11120,"\"\"":11121,"théorie":11122,"Seine":11123,"gène":11124,"armes":11125,"énergie":11126,"appelée":11127,"86":11128,"eaux":11129,"utes":11130,"pierre":11131,"russe":11132,"vig":11133,"meurt":11134,"Sav":11135,"doivent":11136,"teaux":11137,"célé":11138,"lage":11139,"rejoint":11140,"êche":11141,"évolu":11142,"ura":11143,"cus":11144,"courant":11145,"dien":11146,"alise":11147,"personnages":11148,"écla":11149,"enregistre":11150,"certain":11151,"concep":11152,"voire":11153,"auto":11154,"Den":11155,"Toponymie":11156,"Français":11157,"arts":11158,"fis":11159,"Centre":11160,"Cap":11161,"offre":11162,"irent":11163,"romaine":11164,"propose":11165,"Elles":11166,"entreprises":11167,"musée":11168,"42":11169,"représente":11170,"Royaume":11171,"allè":11172,"régime":11173,"Toute":11174,"remarqu":11175,"moderne":11176,"chaîne":11177,"ça":11178,"kilomètres":11179,"utilisée":11180,"contribu":11181,"hame":11182,"parties":11183,"Fre":11184,"entraî":11185,"bran":11186,"Belgique":11187,"Pet":11188,"Py":11189,"radio":11190,"Haute":11191,"1996":11192,"confir":11193,"code":11194,"glo":11195,"condam":11196,"japon":11197,"vitesse":11198,"ouvrage":11199,"fau":11200,"Ha":11201,"décor":11202,"polé":11203,"lique":11204,"command":11205,"sh":11206,"pag":11207,"Mil":11208,"chapelle":11209,"ciens":11210,"principales":11211,"offici":11212,"trouvent":11213,"peau":11214,"David":11215,"iciel":11216,"économie":11217,"préc":11218,"Ven":11219,"liber":11220,"honneur":11221,"protection":11222,"appu":11223,"gés":11224,"deman":11225,"stra":11226,"massi":11227,"mariage":11228,"pal":11229,"tir":11230,"probablement":11231,"naturel":11232,"existence":11233,"décrit":11234,"individu":11235,"rappe":11236,"St":11237,"transport":11238,"rédu":11239,"arab":11240,"loge":11241,"atique":11242,"vidé":11243,"journal":11244,"constitue":11245,"lain":11246,"monuments":11247,"Er":11248,"Alexand":11249,"collabor":11250,"nies":11251,"inves":11252,"agnol":11253,"publie":11254,"techniques":11255,"Mag":11256,"cte":11257,"divis":11258,"langues":11259,"pel":11260,"polog":11261,"Cu":11262,"tenue":11263,"chiff":11264,"Bal":11265,"évrier":11266,"importance":11267,"gre":11268,"chau":11269,"cellu":11270,"cœur":11271,"enfin":11272,"engag":11273,"Por":11274,"nit":11275,"ordin":11276,"pap":11277,"image":11278,"1992":11279,"permettent":11280,"aces":11281,"ogne":11282,"2019":11283,"airement":11284,"51":11285,"classique":11286,"phénom":11287,"fix":11288,"buts":11289,"eut":11290,"vice":11291,"presse":11292,"Thom":11293,"taine":11294,"1994":11295,"évo":11296,"mond":11297,"SS":11298,"utilise":11299,"salle":11300,"iser":11301,"naires":11302,"actuel":11303,"blanc":11304,"ducation":11305,"élimin":11306,"Gi":11307,"reti":11308,"stu":11309,"Lyon":11310,"fonctions":11311,"culp":11312,"anima":11313,"éto":11314,"figure":11315,"élément":11316,"ski":11317,"enfant":11318,"und":11319,"84":11320,"var":11321,"neuf":11322,"règne":11323,"Sant":11324,"Dieu":11325,"élè":11326,"regrou":11327,"attaque":11328,"53":11329,"chet":11330,"acte":11331,"affaires":11332,"prince":11333,"Em":11334,"54":11335,"cherche":11336,"paroisse":11337,"scé":11338,"limitro":11339,"fémin":11340,"Min":11341,"Ligue":11342,"miques":11343,"ids":11344,"dia":11345,"187":11346,"fre":11347,"Aca":11348,"ctures":11349,"longtemps":11350,"suivi":11351,"soldat":11352,"èles":11353,"gros":11354,"peuple":11355,"hait":11356,"enseignement":11357,"puissance":11358,"février":11359,"gro":11360,"83":11361,"estre":11362,"continue":11363,"engage":11364,"Willi":11365,"pourrait":11366,"nar":11367,"télévision":11368,"nuit":11369,"volu":11370,"contempor":11371,"ala":11372,"quitte":11373,"évêque":11374,"Eu":11375,"oto":11376,"sible":11377,"militaires":11378,"choix":11379,"collè":11380,"noir":11381,"beso":11382,"directement":11383,"Anne":11384,"fle":11385,"appro":11386,"relations":11387,"Augus":11388,"côtés":11389,"porté":11390,"Bla":11391,"Tri":11392,"Blan":11393,"obtenir":11394,"aggl":11395,"tières":11396,"pied":11397,"haute":11398,"voc":11399,"matchs":11400,"Sam":11401,"santé":11402,"souhait":11403,"zz":11404,"propriéta":11405,"constitution":11406,"William":11407,"couleur":11408,"hypo":11409,"chasse":11410,"résultats":11411,"historiques":11412,"chron":11413,"99":11414,"Histor":11415,"document":11416,"Anto":11417,"Air":11418,"prennent":11419,"section":11420,"trième":11421,"risque":11422,"Enfin":11423,"Rég":11424,"ow":11425,"Plusieurs":11426,"atti":11427,"tères":11428,"ky":11429,"Dou":11430,"Jeux":11431,"Suisse":11432,"sécurité":11433,"Mus":11434,"usion":11435,"forêt":11436,"lèmes":11437,"caractère":11438,"Bro":11439,"tournée":11440,"lème":11441,"importants":11442,"rendre":11443,"km":11444,"tic":11445,"principe":11446,"Clu":11447,"appare":11448,"ung":11449,"Guilla":11450,"comté":11451,"hos":11452,"XV":11453,"sert":11454,"sommet":11455,"mos":11456,"textes":11457,"assis":11458,"maître":11459,"diverses":11460,"mau":11461,"cav":11462,"techn":11463,"venant":11464,"52":11465,"pilo":11466,"Institu":11467,"Certains":11468,"École":11469,"ieuse":11470,"traction":11471,"1993":11472,"ich":11473,"Trois":11474,"Mc":11475,"reprises":11476,"bure":11477,"ars":11478,"tag":11479,"statut":11480,"ks":11481,"inférie":11482,"types":11483,"certaine":11484,"sif":11485,"raux":11486,"pée":11487,"tension":11488,"supérieure":11489,"vait":11490,"doute":11491,"anie":11492,"auteurs":11493,"1950":11494,"omie":11495,"illy":11496,"allemande":11497,"FC":11498,"bap":11499,"Première":11500,"pens":11501,"dispon":11502,"compar":11503,"signifie":11504,"Hol":11505,"rich":11506,"matière":11507,"mur":11508,"dant":11509,"nécessaire":11510,"professeur":11511,"»)":11512,"oblig":11513,"jouer":11514,"vel":11515,"isent":11516,"Gau":11517,"savoir":11518,"catholique":11519,"soli":11520,"ilité":11521,"Toutefois":11522,"compétition":11523,"créer":11524,"Nicolas":11525,"sociale":11526,"Culture":11527,"course":11528,"nomin":11529,"issue":11530,"permis":11531,"distric":11532,"dernières":11533,"62":11534,"maisons":11535,"omération":11536,"1991":11537,"time":11538,"ax":11539,"mieux":11540,"graphique":11541,"quelque":11542,"mour":11543,"blio":11544,"livres":11545,"Malgré":11546,"communal":11547,"communication":11548,"prépar":11549,"cées":11550,"Prin":11551,"pronon":11552,"pau":11553,"légu":11554,"faci":11555,"ives":11556,"contrat":11557,"invent":11558,"franco":11559,"construite":11560,"rup":11561,"civi":11562,"ologne":11563,"nommée":11564,"CA":11565,"reprend":11566,"tiste":11567,"Guillaume":11568,"Lor":11569,"longueur":11570,"bâtiment":11571,"maî":11572,"gées":11573,"prol":11574,"pis":11575,"seront":11576,"bassin":11577,"yn":11578,"bénéfi":11579,"alisé":11580,"législa":11581,"nelles":11582,"bér":11583,"omme":11584,"Pont":11585,"soutien":11586,"êtres":11587,"édifi":11588,"territori":11589,"lettres":11590,"mann":11591,"uration":11592,"Van":11593,"perfor":11594,"ende":11595,"manifest":11596,"Os":11597,"anger":11598,"protest":11599,"capacité":11600,"din":11601,"nag":11602,"exploitation":11603,"mière":11604,"problèmes":11605,"icul":11606,"pole":11607,"objets":11608,"aller":11609,"rasse":11610,"sculp":11611,"Alpes":11612,"denti":11613,"aci":11614,"superficie":11615,"matérie":11616,"sages":11617,"Russie":11618,"consid":11619,"iment":11620,"utiliser":11621,"Ange":11622,"traitement":11623,"sciences":11624,"comporte":11625,"tig":11626,"religieux":11627,"remon":11628,"ouverture":11629,"reux":11630,"yer":11631,"quatrième":11632,"oue":11633,"cine":11634,"Fon":11635,"isée":11636,"Nation":11637,"anciennes":11638,"pir":11639,"artistes":11640,"pièce":11641,"équipes":11642,"climat":11643,"animaux":11644,"stade":11645,"belle":11646,"%)":11647,"prati":11648,"Str":11649,"sovi":11650,"déri":11651,"souver":11652,"importantes":11653,"noi":11654,"41":11655,"avan":11656,"ell":11657,"appelle":11658,"hin":11659,"Sous":11660,"élo":11661,"largement":11662,"représentant":11663,"mach":11664,"alter":11665,"définie":11666,"mémo":11667,"dimin":11668,"rang":11669,"pape":11670,"tiens":11671,"isé":11672,"Université":11673,"Ban":11674,"écar":11675,"température":11676,"italien":11677,"conc":11678,"paix":11679,"proces":11680,"nationales":11681,"preuve":11682,"semb":11683,"aéri":11684,"assi":11685,"îles":11686,"1988":11687,"municipal":11688,"contrô":11689,"CI":11690,"Wil":11691,"Club":11692,"arrive":11693,"von":11694,"ji":11695,"classement":11696,"1989":11697,"opposition":11698,"├─":11699,"Ap":11700,"secré":11701,"appelés":11702,"Richard":11703,"agglomération":11704,"quelles":11705,"alu":11706,"exclu":11707,"viend":11708,"Tar":11709,"igh":11710,"fru":11711,"ingé":11712,"écoles":11713,"lam":11714,"aspec":11715,"Fe":11716,"Ir":11717,"compris":11718,"résil":11719,"portant":11720,"ice":11721,"conduit":11722,"issent":11723,"constitué":11724,"familles":11725,"difficul":11726,"profit":11727,"pologie":11728,"cesse":11729,"inaug":11730,"py":11731,"relativement":11732,"rais":11733,"utilisés":11734,"stratég":11735,"hum":11736,"Premier":11737,"possé":11738,"derrière":11739,"communau":11740,"vidéo":11741,"unesse":11742,"fortement":11743,"larité":11744,"désigne":11745,"crée":11746,"passant":11747,"devait":11748,"indépendance":11749,"record":11750,"jon":11751,"construire":11752,"décision":11753,"françaises":11754,"82":11755,"Mis":11756,"Da":11757,"dg":11758,"mographie":11759,"crise":11760,"sel":11761,"Antoine":11762,"Cant":11763,"Mat":11764,"arché":11765,"Cela":11766,"sites":11767,"souff":11768,"difficile":11769,"durée":11770,"Économ":11771,"visite":11772,"lic":11773,"chement":11774,"diction":11775,"Bernard":11776,"rare":11777,"pent":11778,"bâtiments":11779,"Ros":11780,"social":11781,"faisait":11782,"raine":11783,"itime":11784,"Gal":11785,"civil":11786,"gage":11787,"élector":11788,"avantage":11789,"attest":11790,"if":11791,"systèmes":11792,"cab":11793,"relation":11794,"ario":11795,"fondée":11796,"Ara":11797,"vées":11798,"igu":11799,"veut":11800,"extrême":11801,"Mauri":11802,"auton":11803,"montagne":11804,"Montré":11805,"nour":11806,"donnée":11807,"numéro":11808,"répu":11809,"saires":11810,"explique":11811,"villages":11812,"termes":11813,"apparition":11814,"bliothè":11815,"tivité":11816,"palais":11817,"CF":11818,"attend":11819,"réalise":11820,"retrouv":11821,"ald":11822,"démon":11823,"masse":11824,"bout":11825,"réalité":11826,"Lin":11827,"processus":11828,"dies":11829,"mathé":11830,"Tor":11831,"européen":11832,"amment":11833,"ity":11834,"emploi":11835,"Historique":11836,"Neu":11837,"front":11838,"telles":11839,"hauteur":11840,"ms":11841,"ye":11842,"porta":11843,"scientifique":11844,"lotte":11845,"vet":11846,"aï":11847,"bru":11848,"aisse":11849,"Thomas":11850,"conç":11851,"impéri":11852,"Économie":11853,"ting":11854,"dimen":11855,"acces":11856,"alisée":11857,"accus":11858,"Ke":11859,"rable":11860,"chargé":11861,"vite":11862,"établissement":11863,"Dame":11864,"mondial":11865,"expression":11866,"problème":11867,"Montréal":11868,"oux":11869,"hér":11870,"deme":11871,"nac":11872,"continent":11873,"James":11874,"découverte":11875,"rel":11876,"police":11877,"chansons":11878,"aven":11879,"mol":11880,"posant":11881,"tances":11882,"61":11883,"\"'":11884,"composée":11885,"afflu":11886,"parents":11887,"Puis":11888,"lettre":11889,"affec":11890,"inten":11891,"phase":11892,"véritable":11893,"parle":11894,"dul":11895,"phot":11896,"devint":11897,"suivantes":11898,"revient":11899,"futur":11900,"quoti":11901,"sang":11902,"Loc":11903,"Cent":11904,"régulièrement":11905,"George":11906,"endro":11907,"reçu":11908,"quanti":11909,"Adminis":11910,"Alors":11911,"unis":11912,"qués":11913,"trent":11914,"véhi":11915,"Bois":11916,"Victor":11917,"Fo":11918,"ray":11919,"assin":11920,"().":11921,"nouvel":11922,"bom":11923,"lour":11924,"concur":11925,"soldats":11926,"vert":11927,"dollar":11928,"ètes":11929,"objectif":11930,"Société":11931,"chacun":11932,"matéri":11933,"coupe":11934,"central":11935,"intéres":11936,"déclare":11937,".-":11938,"accor":11939,"Pal":11940,"juri":11941,"Académie":11942,"Urb":11943,"ferme":11944,"fiée":11945,"tements":11946,"Autri":11947,"Maurice":11948,"couleurs":11949,"Cy":11950,"rock":11951,"ft":11952,"méda":11953,"actuellement":11954,"ouvre":11955,"agriculture":11956,"officiellement":11957,"Prix":11958,"pat":11959,"ague":11960,"défaite":11961,"occupe":11962,"concent":11963,"occupation":11964,"riches":11965,"conflit":11966,"urg":11967,"accident":11968,"petites":11969,"Villa":11970,"Met":11971,"puisque":11972,"mini":11973,"romain":11974,"Asse":11975,"PS":11976,"critiques":11977,"Port":11978,"see":11979,"sante":11980,"guit":11981,"proches":11982,"frontière":11983,"Quel":11984,"Mos":11985,"moteur":11986,"poléon":11987,"parlement":11988,"pouvant":11989,"1986":11990,"absence":11991,"tribun":11992,"maladie":11993,"pant":11994,"comment":11995,"descend":11996,"minutes":11997,"div":11998,"nuclé":11999,"tableau":12000,"74":12001,"Notre":12002,"73":12003,"Cré":12004,"lux":12005,"Pré":12006,"Tu":12007,"Kar":12008,"Et":12009,"irie":12010,"effic":12011,"nalités":12012,"fus":12013,"esprit":12014,"laise":12015,"81":12016,"connaître":12017,"recense":12018,"mains":12019,"gration":12020,"76":12021,"italienne":12022,"Fré":12023,"implant":12024,"ram":12025,"couronne":12026,"royale":12027,"ling":12028,"décret":12029,"littérature":12030,"Gir":12031,"Albert":12032,"phère":12033,"old":12034,"biens":12035,"monument":12036,"justice":12037,"recue":12038,"suppl":12039,"immédi":12040,"atteindre":12041,"lutte":12042,"fant":12043,"Vie":12044,"côte":12045,"gor":12046,"suffis":12047,"leil":12048,"récent":12049,"raient":12050,"aître":12051,"Rog":12052,"collection":12053,"aval":12054,"ignent":12055,"ettes":12056,"bras":12057,"cam":12058,"néan":12059,"mâ":12060,"métal":12061,"éducation":12062,"dits":12063,"analyse":12064,"sorte":12065,"vont":12066,"Normand":12067,"franch":12068,"Aux":12069,"expé":12070,"Administration":12071,"seaux":12072,"secrétaire":12073,"Guy":12074,"AS":12075,"désigner":12076,"négo":12077,"kin":12078,"remplacé":12079,"canadi":12080,"architecture":12081,"renouve":12082,"liberté":12083,"contrain":12084,"éviter":12085,"Commun":12086,"1982":12087,"transports":12088,"Aut":12089,"suivre":12090,"train":12091,"arrêté":12092,"Austral":12093,"Ali":12094,"êts":12095,"méthode":12096,"hen":12097,"cade":12098,"tours":12099,"information":12100,"Del":12101,"Mou":12102,"naturelle":12103,"Vin":12104,"tiennent":12105,"consta":12106,"élevé":12107,"océan":12108,"parta":12109,"départementale":12110,"néanmoins":12111,"famili":12112,"expérience":12113,"ER":12114,"Leur":12115,"faveur":12116,"louse":12117,"hydro":12118,"développé":12119,"frères":12120,"liv":12121,"Pé":12122,"radi":12123,"Ray":12124,"permettre":12125,"los":12126,"distance":12127,"populations":12128,"phone":12129,"taires":12130,"dépendant":12131,"uns":12132,"quasi":12133,"dédi":12134,"morts":12135,"bit":12136,"épisode":12137,"faits":12138,"Bos":12139,"référ":12140,"performan":12141,"orth":12142,"amour":12143,"illé":12144,"ifs":12145,"ige":12146,"locaux":12147,"dû":12148,"Situ":12149,"quoi":12150,"consul":12151,"dési":12152,"hône":12153,"nationaux":12154,"Alexandre":12155,"genti":12156,"posent":12157,"basse":12158,"intég":12159,"dollars":12160,"1985":12161,"pois":12162,"ash":12163,"bio":12164,"1984":12165,"Vienne":12166,"chute":12167,"publics":12168,"perman":12169,"ES":12170,"cteurs":12171,"72":12172,"Institut":12173,"tein":12174,"mir":12175,"croissance":12176,"écriture":12177,"Égyp":12178,"capitaine":12179,"ande":12180,"connus":12181,"ira":12182,"manque":12183,"attraction":12184,"concernant":12185,"totale":12186,"US":12187,"Ho":12188,"acquis":12189,"uellement":12190,"magaz":12191,"niers":12192,"joué":12193,"contient":12194,"entièrement":12195,"avent":12196,"fleuve":12197,"syndic":12198,"ange":12199,"dues":12200,"Rhône":12201,"moyens":12202,"uil":12203,"perd":12204,"clubs":12205,"abou":12206,"Démographie":12207,"Laurent":12208,"propres":12209,"Léon":12210,"reine":12211,"Associ":12212,"Cô":12213,"espagnol":12214,"pital":12215,"effets":12216,"mots":12217,"mouvements":12218,"Orient":12219,"Avant":12220,"posée":12221,"diter":12222,"échange":12223,"issement":12224,"soient":12225,"plantes":12226,"bot":12227,"culte":12228,"obtenu":12229,"ester":12230,"sœur":12231,"1930":12232,"démo":12233,"étation":12234,"plateau":12235,"bie":12236,"affaire":12237,"Asie":12238,"lumière":12239,"pier":12240,"diminu":12241,"label":12242,"Thi":12243,"chinois":12244,"trés":12245,"suivants":12246,"%).":12247,"dessous":12248,"nobles":12249,"parallè":12250,"ouvrages":12251,"riers":12252,"composition":12253,"avi":12254,"vous":12255,"pêche":12256,"électrique":12257,"desti":12258,"1987":12259,"micro":12260,"inclu":12261,"parvient":12262,"Bur":12263,"cules":12264,"Marc":12265,"union":12266,"autorité":12267,"compor":12268,"rug":12269,"conver":12270,"républic":12271,"iale":12272,"olé":12273,"aca":12274,"limitrophes":12275,"changement":12276,"aménage":12277,"Né":12278,"sable":12279,"cations":12280,"échan":12281,"illant":12282,"pt":12283,"anisation":12284,"écrivain":12285,"application":12286,"caractéristiques":12287,"fonds":12288,"dynas":12289,"territoires":12290,"tenti":12291,"paris":12292,"résultat":12293,"zer":12294,"projets":12295,"ceau":12296,"CO":12297,"zy":12298,"kh":12299,"Bourgogne":12300,"aî":12301,"voies":12302,"psych":12303,"devenue":12304,"laisse":12305,"mécan":12306,"rues":12307,"sing":12308,"juste":12309,"lesquels":12310,"parce":12311,"remplace":12312,"commande":12313,"ivre":12314,"Orlé":12315,"Mes":12316,"tournoi":12317,"uniquement":12318,"débuts":12319,"wo":12320,"quences":12321,"couple":12322,"chap":12323,"Inde":12324,"ov":12325,"élèves":12326,"lable":12327,"Celui":12328,"indique":12329,"Assemblée":12330,"chante":12331,"métr":12332,"comptait":12333,"semaines":12334,"ologue":12335,"accueille":12336,"rele":12337,"anth":12338,"1968":12339,"lite":12340,"monie":12341,"marche":12342,"renfor":12343,"rem":12344,"nellement":12345,"’\"":12346,"solution":12347,"économiques":12348,"lay":12349,"vég":12350,"Urbanisme":12351,"complexe":12352,"vaient":12353,"1940":12354,"mémoire":12355,"aissent":12356,"produire":12357,"armées":12358,"nin":12359,"participation":12360,"vente":12361,"Ham":12362,"Peu":12363,"Ve":12364,"rejoindre":12365,"lat":12366,"Jour":12367,"informations":12368,"guerres":12369,"1981":12370,"Lorsque":12371,"meilleure":12372,"1975":12373,"cie":12374,"mélan":12375,"liers":12376,"peine":12377,"logements":12378,"gouverneur":12379,"riche":12380,"1973":12381,"Château":12382,"japonais":12383,"euros":12384,"Autriche":12385,"mesures":12386,"Prov":12387,"oxy":12388,"municipalité":12389,"tas":12390,"bloc":12391,"Champion":12392,"cime":12393,"incar":12394,"juge":12395,"1983":12396,"Hi":12397,"acteurs":12398,"tombe":12399,"entraîneur":12400,"local":12401,"rapide":12402,"RA":12403,"ah":12404,"Toulouse":12405,"sances":12406,"renom":12407,"Francis":12408,"hôtel":12409,"siècles":12410,"chent":12411,"départemental":12412,"uels":12413,"150":12414,"1945":12415,"Tom":12416,"issant":12417,"consci":12418,"rédi":12419,"entier":12420,"électron":12421,"forment":12422,"religion":12423,"philosophie":12424,"intercommun":12425,"unités":12426,"méta":12427,"extérieur":12428,"euse":12429,"ize":12430,"deaux":12431,"bron":12432,"gla":12433,"viv":12434,"canal":12435,"cot":12436,"heim":12437,"afric":12438,"agricole":12439,"fabri":12440,"paravant":12441,"Vol":12442,"héd":12443,"Pic":12444,"intitulé":12445,"tér":12446,"bliothèque":12447,"geois":12448,"Micha":12449,"étudiants":12450,"oie":12451,"fiant":12452,"musul":12453,"FA":12454,"revan":12455,"allu":12456,"régional":12457,"réfu":12458,"rurale":12459,"entité":12460,"Quelques":12461,"Cham":12462,"pulation":12463,"wn":12464,"René":12465,"gol":12466,"alerie":12467,"concerne":12468,"xima":12469,"Cali":12470,"américains":12471,"dd":12472,"science":12473,"Cli":12474,"adver":12475,"Insee":12476,"rev":12477,"édie":12478,"naturels":12479,"liés":12480,"Marse":12481,"Orléans":12482,"Gr":12483,"cipl":12484,"usement":12485,"way":12486,"Tout":12487,"assurer":12488,"concours":12489,"libér":12490,"phénomène":12491,"Ko":12492,"fabric":12493,"ignant":12494,"rencontr":12495,"note":12496,"gas":12497,"én":12498,"amis":12499,"pouvait":12500,"1974":12501,"Jon":12502,"festival":12503,"ésie":12504,"district":12505,"spati":12506,"Roche":12507,"Disney":12508,"événements":12509,"impli":12510,"recherches":12511,"tang":12512,"antique":12513,"stand":12514,"95":12515,"Île":12516,"Pr":12517,"quième":12518,"soviétique":12519,"héri":12520,"subs":12521,"traits":12522,"mide":12523,"vieux":12524,"Var":12525,"humaine":12526,"équival":12527,"Australie":12528,"dres":12529,"arque":12530,"Atlan":12531,"aéroport":12532,"mandat":12533,"boule":12534,"Constan":12535,".\"":12536,"partage":12537,"Art":12538,"olympiques":12539,"parten":12540,"May":12541,"ica":12542,"ates":12543,"profonde":12544,"accueilli":12545,"simi":12546,"Grou":12547,"agricoles":12548,"delà":12549,"1972":12550,"poids":12551,"considère":12552,"Étienne":12553,"condition":12554,"ouvert":12555,"1971":12556,"domaines":12557,"Bay":12558,"portion":12559,"préfec":12560,"valeurs":12561,"Gas":12562,"tante":12563,"topon":12564,"hédrale":12565,"diffusion":12566,"trava":12567,"1979":12568,"Simon":12569,"portée":12570,"présidenti":12571,"Normandie":12572,"revanche":12573,"vité":12574,"télévis":12575,"Égypte":12576,"circonscription":12577,"talement":12578,"échelle":12579,"communiste":12580,"onde":12581,"ambi":12582,"découpage":12583,"Mel":12584,"uves":12585,"gens":12586,"Gre":12587,"fréquent":12588,"ters":12589,"Communes":12590,"raisons":12591,"ications":12592,"opérations":12593,"1976":12594,"résistance":12595,"Rol":12596,"vivant":12597,"démission":12598,"concept":12599,"CD":12600,"1977":12601,"volonté":12602,"écou":12603,"diz":12604,"victoires":12605,"affron":12606,"Dar":12607,"différence":12608,"scientifiques":12609,"arme":12610,"autorou":12611,"Rés":12612,"demeure":12613,"mises":12614,"albums":12615,"passa":12616,"Marne":12617,"act":12618,"EP":12619,"1978":12620,"potenti":12621,"symp":12622,"disque":12623,"Hong":12624,"gou":12625,"mascul":12626,"conserva":12627,"Napoléon":12628,"rence":12629,"abilité":12630,"ministère":12631,"élève":12632,"carte":12633,"plein":12634,"évent":12635,"séries":12636,"prun":12637,"combin":12638,"ïs":12639,"pom":12640,"Sau":12641,"Pen":12642,"douze":12643,"fondateur":12644,"rece":12645,"lycée":12646,"monas":12647,"diterran":12648,"retraite":12649,"exposition":12650,"Men":12651,"nette":12652,"portes":12653,"budg":12654,"maintenant":12655,"responsable":12656,"civile":12657,"ld":12658,"autorités":12659,"élus":12660,"venu":12661,"Chaque":12662,"achet":12663,"rovi":12664,"Lar":12665,"privil":12666,"étape":12667,"oration":12668,"Jack":12669,"aliers":12670,"réaliser":12671,"peintre":12672,"isseau":12673,"collège":12674,"député":12675,"cite":12676,"portent":12677,"dier":12678,"semaine":12679,"mands":12680,"contexte":12681,"Gab":12682,"restre":12683,"finit":12684,"récu":12685,"usine":12686,"myth":12687,"puisqu":12688,"édération":12689,"trente":12690,"déch":12691,"progressivement":12692,"tenus":12693,"german":12694,"résident":12695,"utilisant":12696,"traverse":12697,"discipl":12698,"navires":12699,"vivre":12700,"souverain":12701,"possibilité":12702,"fête":12703,"établissements":12704,"modèles":12705,"héros":12706,"ive":12707,"Cher":12708,"mix":12709,"mité":12710,"1920":12711,"emprun":12712,"Bru":12713,"judi":12714,"Savoie":12715,"dioc":12716,"Star":12717,"cédé":12718,"empê":12719,"éten":12720,"yant":12721,"vaste":12722,"distribution":12723,"consiste":12724,"aura":12725,"réd":12726,"ati":12727,"racon":12728,"èdent":12729,"Super":12730,"Hor":12731,"actrice":12732,"ago":12733,"intes":12734,"fications":12735,"rares":12736,"agu":12737,"posses":12738,"officielle":12739,"décen":12740,"Berlin":12741,"cimetière":12742,"Los":12743,"filles":12744,"ilier":12745,"uten":12746,"révé":12747,"nois":12748,"modes":12749,"terminologie":12750,"posées":12751,"seurs":12752,"parler":12753,"tue":12754,"destru":12755,"expériment":12756,"somme":12757,"ôles":12758,"quar":12759,"saisons":12760,"tribunal":12761,"1967":12762,"organisé":12763,"entrer":12764,"chambre":12765,"To":12766,"norma":12767,"idées":12768,"matériel":12769,"personnel":12770,"promo":12771,"notre":12772,"conclu":12773,"lende":12774,"Brésil":12775,"revue":12776,"71":12777,"rome":12778,"Marseille":12779,"reprise":12780,"socialiste":12781,"Association":12782,"Camp":12783,"adul":12784,"céder":12785,"ings":12786,"fondation":12787,"règles":12788,"rand":12789,"Tous":12790,"impression":12791,"Oli":12792,"calcul":12793,"human":12794,"Chi":12795,"ache":12796,"ws":12797,"'.":12798,"Bordeaux":12799,"escla":12800,"cris":12801,"supplément":12802,"hommage":12803,"flu":12804,"quées":12805,"triques":12806,"jur":12807,"Rec":12808,"1969":12809,"veu":12810,"conception":12811,"pourtant":12812,"chy":12813,"posés":12814,"Lieux":12815,"Califor":12816,"%.":12817,"zonage":12818,"négoci":12819,"terie":12820,"sala":12821,"privée":12822,"key":12823,"officiel":12824,"artiste":12825,"croix":12826,"Michael":12827,"magazine":12828,"arabe":12829,"170":12830,"reau":12831,"ferrovi":12832,"variété":12833,"yo":12834,"vesti":12835,"nomme":12836,"cales":12837,"Denis":12838,"thème":12839,"récomp":12840,"AC":12841,"Jér":12842,"archi":12843,"Anton":12844,"tissement":12845,"milit":12846,"Marcel":12847,"Lég":12848,"»).":12849,"fid":12850,"vote":12851,"routes":12852,"citer":12853,"Max":12854,"Lang":12855,"Temp":12856,"belge":12857,"Plan":12858,"Pra":12859,"Cath":12860,"studio":12861,"distingue":12862,"blé":12863,"locales":12864,"réalisateur":12865,"Mex":12866,"lises":12867,"agno":12868,"éditions":12869,"développer":12870,"architecte":12871,"procès":12872,"Lac":12873,"langage":12874,"contact":12875,"nomination":12876,"noy":12877,"zan":12878,"pés":12879,"tations":12880,"rations":12881,"Alain":12882,"orité":12883,"breton":12884,"dépla":12885,"commercial":12886,"Mur":12887,"AD":12888,"génération":12889,"çons":12890,"Dra":12891,"vac":12892,"rugby":12893,"échec":12894,"perdu":12895,"Pologne":12896,"sins":12897,"publication":12898,"Parlement":12899,"Provence":12900,"massif":12901,"cinquième":12902,"réforme":12903,"itre":12904,"score":12905,"cathédrale":12906,"peur":12907,"160":12908,"administrative":12909,"ûte":12910,"Gren":12911,"découv":12912,"lue":12913,"présents":12914,"installe":12915,"œurs":12916,"augmentation":12917,"affi":12918,"ita":12919,"suisse":12920,"lons":12921,"gy":12922,"Grè":12923,"partis":12924,"auparavant":12925,"atoires":12926,"considérée":12927,"Roger":12928,"compose":12929,"Fi":12930,"conne":12931,"intermédi":12932,"marqué":12933,"hal":12934,"FF":12935,"Maison":12936,"mène":12937,"ieuses":12938,"Win":12939,"roche":12940,"idae":12941,"respectivement":12942,"déclin":12943,"gam":12944,"tian":12945,"ressources":12946,"jeunesse":12947,"médiév":12948,"tôt":12949,"empire":12950,"angle":12951,"chir":12952,"appré":12953,"ington":12954,"articles":12955,"députés":12956,"nait":12957,"quart":12958,"collaboration":12959,"pire":12960,"ïque":12961,"envis":12962,"98":12963,"représentation":12964,"Musi":12965,"ordres":12966,"sauf":12967,"sociétés":12968,"temple":12969,"yeux":12970,"notion":12971,"Petit":12972,"axe":12973,"sols":12974,"chim":12975,"appr":12976,"simplement":12977,"parer":12978,"consommation":12979,".)":12980,"ryth":12981,"fas":12982,"tins":12983,"Nav":12984,"Population":12985,"rejet":12986,"500":12987,"quité":12988,"Algé":12989,"relief":12990,"pâ":12991,"déplace":12992,"affirme":12993,"sure":12994,"tribue":12995,"localité":12996,"Brux":12997,"èvre":12998,"quartiers":12999,"seuls":13000,"sport":13001,"reconnu":13002,"adjo":13003,"besoin":13004,"seignement":13005,"judici":13006,"bis":13007,"mono":13008,"révol":13009,"'«":13010,"épi":13011,"refuse":13012,"capable":13013,"meu":13014,"trône":13015,"Bus":13016,"lun":13017,"dium":13018,"olo":13019,"ader":13020,"maxim":13021,"pées":13022,"Vers":13023,"Royal":13024,"printemps":13025,"instrument":13026,"propriétaire":13027,"archie":13028,"discours":13029,"meilleurs":13030,"jam":13031,"intè":13032,"noc":13033,"hôpital":13034,"procé":13035,"lendemain":13036,"rid":13037,"vide":13038,"récit":13039,"times":13040,"médecine":13041,"couv":13042,"abbé":13043,"répartition":13044,"96":13045,"[[":13046,"chestre":13047,"alph":13048,"ford":13049,"Isa":13050,"Nom":13051,"photo":13052,"comité":13053,"Pou":13054,"peint":13055,"noire":13056,"Typologie":13057,"quie":13058,"cheval":13059,"tification":13060,"réalisation":13061,"conseillers":13062,"faites":13063,"mater":13064,"organise":13065,"ket":13066,"soi":13067,"]]":13068,"ek":13069,"patron":13070,"étranger":13071,"pique":13072,"1962":13073,"Croix":13074,"extension":13075,"assure":13076,"AN":13077,"arrêt":13078,"inage":13079,"laris":13080,"pense":13081,"ceaux":13082,"Ker":13083,"scén":13084,"iz":13085,"aspect":13086,"dynastie":13087,"utilisées":13088,"tym":13089,"peupl":13090,"commandement":13091,"catégorie":13092,"Daniel":13093,"tenait":13094,"spécifique":13095,"rance":13096,"humain":13097,"Nu":13098,"Mari":13099,"ruisseau":13100,"Haut":13101,"tino":13102,"culturel":13103,"frag":13104,"Championnat":13105,"phones":13106,"cartes":13107,"Do":13108,"Bruxelles":13109,"ater":13110,"fleur":13111,"emplace":13112,"formée":13113,"chaî":13114,"VI":13115,"fréqu":13116,"imm":13117,"dieu":13118,"ttes":13119,"approche":13120,"dens":13121,"dénon":13122,"cia":13123,"tini":13124,"peinture":13125,"fro":13126,"émer":13127,"Aff":13128,"avion":13129,"participer":13130,"fla":13131,"évalu":13132,"cycle":13133,"parcours":13134,"tox":13135,"déric":13136,"tradu":13137,"97":13138,"appartenant":13139,"majoritaire":13140,"automob":13141,"estime":13142,"Pyré":13143,"fabrication":13144,"forêts":13145,"endu":13146,"Patri":13147,"pic":13148,"poursuit":13149,"Description":13150,"1964":13151,"manche":13152,"1944":13153,"apo":13154,"Stu":13155,"ku":13156,"Jules":13157,"iennes":13158,"expédition":13159,"Néan":13160,"douard":13161,"Portu":13162,"chen":13163,"contraire":13164,"découvre":13165,"espaces":13166,"Flor":13167,"Californie":13168,"Pyrénées":13169,"éron":13170,"inet":13171,"séjour":13172,"commission":13173,"conséquence":13174,"appellation":13175,"producteur":13176,"sité":13177,"définition":13178,"Lorraine":13179,"bureau":13180,"viendra":13181,"donnant":13182,"évol":13183,"recensement":13184,"Henry":13185,"CE":13186,"pleine":13187,"Bau":13188,"effort":13189,"manie":13190,"ess":13191,"plas":13192,"Pau":13193,"hel":13194,"quitter":13195,"épisodes":13196,"Han":13197,"tons":13198,"nité":13199,"déroule":13200,"étro":13201,"oiseaux":13202,"missions":13203,"SN":13204,"ager":13205,"originaire":13206,".,":13207,"issus":13208,"polit":13209,"aliser":13210,"Hydro":13211,"Contr":13212,"Peter":13213,"définitivement":13214,"provis":13215,"fonctionnement":13216,"considérable":13217,"»),":13218,"signé":13219,"My":13220,"réaction":13221,"fun":13222,"Christo":13223,"dr":13224,"publiques":13225,"atives":13226,"National":13227,"Sha":13228,"MP":13229,"Bap":13230,"sociales":13231,"hip":13232,"vainque":13233,"Isra":13234,"astron":13235,"inva":13236,"journaliste":13237,"lié":13238,"minim":13239,"gg":13240,"Cos":13241,"asi":13242,"Grèce":13243,"quantité":13244,"criptions":13245,"seigneurie":13246,"visible":13247,"formations":13248,"datant":13249,"War":13250,"igner":13251,"Der":13252,"traversée":13253,"Canton":13254,"gueur":13255,"feuilles":13256,"marine":13257,"chefs":13258,"ores":13259,"tax":13260,"transfé":13261,"ographe":13262,"Org":13263,"avions":13264,"300":13265,"écrits":13266,"travailler":13267,"trices":13268,"retrouver":13269,"fen":13270,"rs":13271,"combats":13272,"journée":13273,"remporté":13274,"1965":13275,"Celle":13276,"commencé":13277,"Carrière":13278,"fondament":13279,"artistique":13280,"plans":13281,"soir":13282,"littéraire":13283,"1914":13284,"réserve":13285,"endroit":13286,"1966":13287,"active":13288,"desservie":13289,"└─":13290,"uelles":13291,"Cat":13292,"mans":13293,"influen":13294,"extré":13295,"jardin":13296,"Gér":13297,"réalisée":13298,"titution":13299,"Belle":13300,"Ot":13301,"daires":13302,"majeure":13303,"professionnel":13304,"versions":13305,"places":13306,"reuse":13307,"cantons":13308,"prolon":13309,"94":13310,"obli":13311,"lone":13312,"Cés":13313,"liées":13314,"bro":13315,"compli":13316,"93":13317,"communautés":13318,"omes":13319,"Algérie":13320,"constituent":13321,"grave":13322,"mettent":13323,"totalement":13324,"anglaise":13325,"veille":13326,"Géné":13327,"hameau":13328,"commandant":13329,"Frédéric":13330,"cession":13331,"ords":13332,"impose":13333,"ben":13334,"résidence":13335,"Fédération":13336,"Quand":13337,"exprim":13338,"royal":13339,"précip":13340,"dehors":13341,"géographique":13342,"concert":13343,"Auguste":13344,"Oise":13345,"preuves":13346,"venue":13347,"vins":13348,"assassin":13349,"atre":13350,"restent":13351,"introdu":13352,"Néanmoins":13353,"effectue":13354,"Jeanne":13355,"Ta":13356,"accueil":13357,"out":13358,"plaine":13359,"administratif":13360,"tem":13361,"Cin":13362,"primaire":13363,"tile":13364,"stations":13365,"You":13366,"92":13367,"montag":13368,"Mau":13369,"bleu":13370,"diam":13371,"présidence":13372,"IS":13373,"Localisation":13374,"déte":13375,"Hom":13376,"\"-":13377,"ON":13378,"1958":13379,"propriétés":13380,"volume":13381,"tourne":13382,"UR":13383,"aménagement":13384,"mettant":13385,"hol":13386,"Christ":13387,"intelle":13388,"atif":13389,"échap":13390,"chanteur":13391,"classes":13392,"cous":13393,"auquel":13394,"Communauté":13395,"chose":13396,"imagin":13397,"pouvoirs":13398,"lingu":13399,"venus":13400,"cuis":13401,"méc":13402,"dar":13403,"Irlande":13404,"Pol":13405,"universe":13406,"Allemands":13407,"modernes":13408,"nul":13409,"rencon":13410,"lieuten":13411,"terrains":13412,"enquête":13413,"cultiv":13414,"mille":13415,"pétro":13416,"symbole":13417,"totalité":13418,"pensée":13419,"constituée":13420,"Festival":13421,"Lon":13422,"stock":13423,"navig":13424,"Nat":13425,"couvre":13426,"lesquelles":13427,"difficultés":13428,"diocèse":13429,"équili":13430,"allant":13431,"Jusqu":13432,"occidentale":13433,"sign":13434,"décès":13435,"Sor":13436,"multipli":13437,"convain":13438,"Lux":13439,"actifs":13440,"éth":13441,"cler":13442,"norme":13443,"voiture":13444,"AR":13445,"espagno":13446,"Pan":13447,"médecin":13448,"Hel":13449,"nalité":13450,"urée":13451,"Vir":13452,"rattachée":13453,"noter":13454,"dimension":13455,"fisc":13456,"lia":13457,"emplacement":13458,"Pos":13459,"sade":13460,"prime":13461,"débute":13462,"positif":13463,"tendance":13464,"envers":13465,"reconnaissance":13466,"béc":13467,"geant":13468,"dyna":13469,"proportion":13470,"compositeur":13471,"établir":13472,"élabor":13473,"gri":13474,"complè":13475,"ffe":13476,"iner":13477,"trafic":13478,"associé":13479,"affluent":13480,"Côte":13481,"mins":13482,"Ram":13483,"sonne":13484,"arma":13485,"légende":13486,"actif":13487,"hypothèse":13488,"marquée":13489,"pp":13490,"religieuse":13491,"Aujourd":13492,"associations":13493,"PC":13494,"1939":13495,"OS":13496,"néga":13497,"fiction":13498,"gagne":13499,"paru":13500,"bombar":13501,"branche":13502,"Monte":13503,"sch":13504,"intervention":13505,"résis":13506,"écrire":13507,"abrite":13508,"essentiel":13509,"Wor":13510,"règle":13511,"Off":13512,"monna":13513,"chiffre":13514,"tori":13515,"basé":13516,"ctes":13517,"réper":13518,"alogue":13519,"Éco":13520,"Év":13521,"intellectu":13522,"Fu":13523,"lymp":13524,"documents":13525,"liqui":13526,"Commission":13527,"Comité":13528,"maires":13529,"liaison":13530,"régiment":13531,"culaire":13532,"contest":13533,"avance":13534,"comportement":13535,"surve":13536,"choisi":13537,"Cra":13538,"mines":13539,"ysté":13540,"observ":13541,"édifice":13542,"ortant":13543,"généraux":13544,"diens":13545,"blanche":13546,"erine":13547,"sias":13548,"Péri":13549,"flotte":13550,"Édouard":13551,"structures":13552,"trée":13553,"varie":13554,"européennes":13555,"provinces":13556,"gers":13557,"images":13558,"Auver":13559,"britanniques":13560,"coopération":13561,"Frank":13562,"orer":13563,"signal":13564,"dées":13565,"quinze":13566,"traduit":13567,"identifi":13568,"bata":13569,"posa":13570,"perte":13571,"rayon":13572,"tourisme":13573,"lette":13574,"proven":13575,"historien":13576,"phéri":13577,"spir":13578,"récupé":13579,"fédération":13580,"recru":13581,"mauvais":13582,"pages":13583,"1963":13584,"seigneurs":13585,"Certaines":13586,"trains":13587,"transfer":13588,"chance":13589,"Chambre":13590,"ouverte":13591,"osse":13592,"correspondant":13593,"ena":13594,"hit":13595,"interdit":13596,"Roi":13597,"Mic":13598,"étrangers":13599,"molécu":13600,"alisés":13601,"Outre":13602,"servir":13603,"découvert":13604,"IN":13605,"fiques":13606,"illar":13607,"troph":13608,"rester":13609,"lines":13610,"West":13611,"diplom":13612,"Fab":13613,"sû":13614,"adaptation":13615,"européens":13616,"selle":13617,"réussit":13618,"originale":13619,"Britan":13620,"Cé":13621,"secondaires":13622,"suivent":13623,"rection":13624,"précise":13625,"conquête":13626,"onze":13627,"navire":13628,"vaut":13629,"danse":13630,"protéger":13631,"Sil":13632,"satel":13633,"passion":13634,"ward":13635,"Colle":13636,"repris":13637,"victimes":13638,"méthodes":13639,"arc":13640,"Amer":13641,"Tro":13642,"inférieur":13643,"dessinée":13644,"individus":13645,"murs":13646,"abandon":13647,"niveaux":13648,"budget":13649,"lès":13650,"wer":13651,"publiée":13652,"facilement":13653,"évid":13654,"tus":13655,"limites":13656,"accent":13657,"canon":13658,"ômes":13659,"fol":13660,"cisme":13661,"présidentielle":13662,"échal":13663,"champs":13664,"diale":13665,"inspiré":13666,"Luc":13667,"arbres":13668,"complète":13669,"Bob":13670,"nations":13671,"ast":13672,"opin":13673,"accu":13674,"disponible":13675,"bronze":13676,"ïde":13677,"amb":13678,"municipale":13679,"mairie":13680,"dégra":13681,"sociaux":13682,"élevage":13683,"préser":13684,"auraient":13685,"130":13686,"anc":13687,"Dor":13688,"atement":13689,"intègre":13690,"Lille":13691,"vard":13692,"Arth":13693,"lem":13694,"indépendant":13695,"ado":13696,"anglo":13697,"RD":13698,"liée":13699,"Auvergne":13700,"voient":13701,"Rhin":13702,"Hydrographie":13703,"Aquit":13704,"Gri":13705,"César":13706,"multiples":13707,"avoc":13708,"jette":13709,"Améric":13710,"rain":13711,"limité":13712,"humains":13713,"institution":13714,"cellules":13715,"91":13716,"infant":13717,"flor":13718,"relle":13719,"TV":13720,"ial":13721,"initialement":13722,"menée":13723,"Comté":13724,"promotion":13725,"1918":13726,"Antiquité":13727,"pav":13728,"délégu":13729,"Suède":13730,"statis":13731,"présenté":13732,"olique":13733,"néer":13734,"expl":13735,"ologies":13736,"rendu":13737,"modé":13738,"plante":13739,"prie":13740,"romans":13741,"médaille":13742,"deviennent":13743,"dos":13744,"Baptiste":13745,"offen":13746,"procla":13747,"diversité":13748,"poète":13749,"autrefois":13750,"1956":13751,"représentants":13752,"autoroute":13753,"ield":13754,"assa":13755,"fleurs":13756,"itz":13757,"croy":13758,"établit":13759,"décri":13760,"portu":13761,"fourn":13762,"tire":13763,"trich":13764,"%,":13765,"situés":13766,"Ancien":13767,"Andre":13768,"disparu":13769,"matin":13770,"atmos":13771,"classé":13772,"identité":13773,"Tre":13774,"Jés":13775,"polon":13776,"automne":13777,"représentent":13778,"aco":13779,"taient":13780,"lec":13781,"lancé":13782,"convention":13783,"chaus":13784,"conserve":13785,"rassemble":13786,"Far":13787,"Nantes":13788,"abond":13789,"dienne":13790,"officiers":13791,"1946":13792,"interprétation":13793,"clan":13794,"Radio":13795,"alphab":13796,"tymologie":13797,"Bul":13798,"lits":13799,"dép":13800,"mener":13801,"lieutenant":13802,"Que":13803,"animal":13804,"aver":13805,"comtes":13806,"alco":13807,"libération":13808,"pilote":13809,"apparaissent":13810,"Orig":13811,"Armée":13812,"maîtres":13813,"Écosse":13814,"BC":13815,"oyer":13816,"médias":13817,"ariat":13818,"enfance":13819,"chand":13820,"illée":13821,"ambas":13822,"llerie":13823,"1961":13824,"réseaux":13825,"confi":13826,"chées":13827,"exter":13828,"jaune":13829,"législatives":13830,"Gol":13831,"diag":13832,"wood":13833,"allemands":13834,"risques":13835,"concerts":13836,"Clé":13837,"questions":13838,"Christian":13839,"mons":13840,"AP":13841,"120":13842,"détruit":13843,"èses":13844,"exil":13845,"Catherine":13846,"aisons":13847,"pointe":13848,"Az":13849,"participé":13850,"Aquitaine":13851,"programmes":13852,"évolue":13853,"Fou":13854,"caractères":13855,"actes":13856,"rastru":13857,"sives":13858,"Mit":13859,"Sm":13860,"sti":13861,"Atlantique":13862,"Ly":13863,"essais":13864,"sièges":13865,"illent":13866,"ose":13867,"agent":13868,"CN":13869,"liens":13870,"ferroviaire":13871,"tone":13872,"Dire":13873,"industrielle":13874,"ennemi":13875,"FI":13876,"faibles":13877,"dation":13878,"1947":13879,"encour":13880,"Lis":13881,"triel":13882,"réussi":13883,"ón":13884,"nance":13885,"réno":13886,"1948":13887,"Angeles":13888,"abeth":13889,"Enseignement":13890,"faces":13891,"acu":13892,"départements":13893,"arbre":13894,"peuples":13895,"traces":13896,"centres":13897,"dirigé":13898,"bibliothèque":13899,"pè":13900,"Black":13901,"mathématiques":13902,"BA":13903,"dette":13904,"planète":13905,"Israël":13906,"circulation":13907,"laté":13908,"professionnelle":13909,"utilisent":13910,"instruments":13911,"étoiles":13912,"origines":13913,"vend":13914,"éte":13915,"musicale":13916,"este":13917,"Land":13918,"Stras":13919,"feme":13920,"sujets":13921,"nucléaire":13922,"pure":13923,"atiques":13924,"infanterie":13925,"ero":13926,"parent":13927,"Gil":13928,"coût":13929,"ection":13930,"otte":13931,"idité":13932,"chevê":13933,"cemment":13934,"Ka":13935,"carbon":13936,"pratiques":13937,"événement":13938,"1959":13939,"fédéral":13940,"maîtr":13941,"domicile":13942,"renon":13943,"compter":13944,"moi":13945,"scru":13946,"nég":13947,"immédiatement":13948,"TP":13949,"bach":13950,"déclen":13951,"ciel":13952,"cardin":13953,"mécanique":13954,"satis":13955,"fini":13956,"auph":13957,"gel":13958,"claire":13959,"bénéfici":13960,"préfecture":13961,"scènes":13962,"prê":13963,"alliance":13964,"tle":13965,"sifs":13966,"cultures":13967,"vise":13968,"race":13969,"appareil":13970,"ographiques":13971,"Ami":13972,"alem":13973,"tué":13974,"québéc":13975,"win":13976,"historiens":13977,"Raymond":13978,"péti":13979,"Ob":13980,"mail":13981,"oppose":13982,"naz":13983,"élevée":13984,"majeur":13985,"montant":13986,"montrer":13987,"complètement":13988,"modu":13989,"Composition":13990,"tain":13991,"finance":13992,"1949":13993,"Mexique":13994,"far":13995,"comédie":13996,"duché":13997,"Nan":13998,"exemplaires":13999,"orb":14000,"accepte":14001,"secondaire":14002,"privé":14003,"alé":14004,"baron":14005,"sace":14006,"prévu":14007,"outi":14008,"destruction":14009,"fixe":14010,"présentent":14011,"ctur":14012,"grecque":14013,"génér":14014,"institutions":14015,"néo":14016,"salari":14017,"diffici":14018,"alterna":14019,"toral":14020,"riques":14021,"oré":14022,"Rous":14023,"brû":14024,"consécu":14025,"spectacle":14026,"héli":14027,"direct":14028,"lion":14029,"morph":14030,"chacune":14031,"Cri":14032,"Monde":14033,"disposition":14034,"èque":14035,"Germain":14036,"écrite":14037,"absor":14038,"Cler":14039,"épreuve":14040,"retrait":14041,"sensi":14042,"réponse":14043,"enva":14044,"marins":14045,"parallèle":14046,"numérique":14047,"cents":14048,"bla":14049,"Ku":14050,"ote":14051,"dirigeants":14052,"espé":14053,"lore":14054,"conférence":14055,"trom":14056,"enceinte":14057,"lancer":14058,"cipales":14059,"étrangères":14060,"Milan":14061,"succession":14062,"Vincent":14063,"single":14064,"édit":14065,"1954":14066,"milliers":14067,"diffusée":14068,"facil":14069,"Johan":14070,"calend":14071,"comprenant":14072,"appréci":14073,"án":14074,"débit":14075,"semi":14076,"officier":14077,"conduite":14078,"oco":14079,"immi":14080,"140":14081,"gallo":14082,"victime":14083,"drome":14084,"divin":14085,"gentine":14086,"véhicules":14087,"intermédiaire":14088,"Luxemb":14089,"sil":14090,"révèle":14091,"usta":14092,"cités":14093,"IX":14094,"gos":14095,"Constitution":14096,"Portugal":14097,"faç":14098,"milieux":14099,"anthro":14100,"culturelle":14101,"tants":14102,"Strasbourg":14103,"rôles":14104,"connues":14105,"iteurs":14106,"animation":14107,"frap":14108,"OM":14109,"Domin":14110,"statue":14111,"habitat":14112,"nieur":14113,"naturelles":14114,"Long":14115,"1936":14116,"interne":14117,"restauration":14118,"aménag":14119,"%),":14120,"ortent":14121,"illage":14122,"Fla":14123,"maximum":14124,"Stade":14125,"installé":14126,"mob":14127,"jusque":14128,"gènes":14129,"aper":14130,"réel":14131,"ud":14132,"mati":14133,"débat":14134,"destiné":14135,"caractéristique":14136,"montée":14137,"sures":14138,"aler":14139,"légèrement":14140,"veux":14141,"Occident":14142,"Nations":14143,"Sab":14144,"formule":14145,"Congrès":14146,"sants":14147,"consacré":14148,"citoy":14149,"apprend":14150,"listes":14151,"dait":14152,"dge":14153,"orchestre":14154,"industriel":14155,"risti":14156,"attesté":14157,"davantage":14158,"annex":14159,"avis":14160,"précipit":14161,"manuel":14162,"agnes":14163,"bul":14164,"informatique":14165,"occupé":14166,"ôts":14167,"jume":14168,"trick":14169,"exécution":14170,"remplacer":14171,"trouvait":14172,"densité":14173,"confon":14174,"Arn":14175,"laisser":14176,"agog":14177,"visant":14178,"ologues":14179,"magné":14180,"Compag":14181,"maintenir":14182,"Ga":14183,"Wo":14184,"tifier":14185,"pollu":14186,"relève":14187,"introduit":14188,"agran":14189,"piste":14190,"1957":14191,"formant":14192,"naît":14193,"Amb":14194,"enseigne":14195,"revenu":14196,"personnalités":14197,"rencontres":14198,"cure":14199,"Pon":14200,"Ul":14201,"aider":14202,"Jan":14203,"Genève":14204,"gaul":14205,"format":14206,"placé":14207,"sar":14208,"400":14209,"kis":14210,"installer":14211,"riel":14212,"conservé":14213,"chevaux":14214,"1793":14215,"musiciens":14216,"\"\",":14217,"électronique":14218,"archevê":14219,"primé":14220,"million":14221,"contenant":14222,"quad":14223,"prot":14224,"cham":14225,"Maria":14226,"dange":14227,"mobi":14228,"cyc":14229,"décidé":14230,"Rap":14231,"lecture":14232,"façade":14233,"suspen":14234,"disparition":14235,"bapti":14236,"réflex":14237,"endie":14238,"principes":14239,"illons":14240,"chrétiens":14241,"scénario":14242,"mile":14243,"pierres":14244,"manus":14245,"milliards":14246,"montagnes":14247,"Arthur":14248,"hori":14249,"1955":14250,"réduit":14251,"réta":14252,"Castel":14253,"Gro":14254,"baisse":14255,"nourrit":14256,"pansion":14257,"isés":14258,"posait":14259,"heur":14260,"itement":14261,"récemment":14262,"réduire":14263,"besoins":14264,"mark":14265,"Die":14266,"clin":14267,"dig":14268,"City":14269,"salles":14270,"chemins":14271,"abat":14272,"cifique":14273,"tentative":14274,"ière":14275,"mobil":14276,"défen":14277,"Fort":14278,"nau":14279,"antérie":14280,"chale":14281,"tivités":14282,"internationales":14283,"gence":14284,"Vau":14285,"Moscou":14286,"stric":14287,"exerci":14288,"olympique":14289,"contro":14290,"Hou":14291,"initiative":14292,"machine":14293,"catholiques":14294,"sortir":14295,"noble":14296,"méri":14297,"insec":14298,"donnent":14299,"présenter":14300,"organisée":14301,"remonte":14302,"Juifs":14303,"régulière":14304,"bourgeois":14305,"contenu":14306,"émi":14307,"transfert":14308,"1870":14309,"Sol":14310,"chat":14311,"Climat":14312,"démocratique":14313,"set":14314,"attendre":14315,"conscience":14316,"monastère":14317,"logique":14318,"range":14319,"Pom":14320,"religieuses":14321,"précédente":14322,"Internet":14323,"véri":14324,"Hit":14325,"drapeau":14326,"déchets":14327,"alla":14328,"seraient":14329,"populaires":14330,"itiers":14331,"José":14332,"\"(":14333,"Brun":14334,"ora":14335,"Contrairement":14336,"pira":14337,"genres":14338,"Hon":14339,"Olymp":14340,"vigueur":14341,"propriétaires":14342,"acide":14343,"récol":14344,"tâ":14345,"universitaire":14346,"tié":14347,"Autres":14348,"circuit":14349,"Saône":14350,"vrai":14351,"facul":14352,"Gérard":14353,"tième":14354,"allait":14355,"traduction":14356,"provoque":14357,"matériaux":14358,"Dun":14359,"bénéficie":14360,"ambassade":14361,"vestiges":14362,"dences":14363,"wan":14364,"espagnole":14365,"prétend":14366,"prisonniers":14367,"Ze":14368,"chon":14369,"Bat":14370,"tellig":14371,"Ron":14372,"hard":14373,"prévoit":14374,"régionale":14375,"féminine":14376,"courte":14377,"révolutionnaire":14378,"basée":14379,"incendie":14380,"assemblée":14381,"évoque":14382,"égyp":14383,"Vis":14384,"quemment":14385,"ours":14386,"transformation":14387,"finan":14388,"issait":14389,"souvenir":14390,"ingénieur":14391,"chapitre":14392,"archives":14393,"hect":14394,"vag":14395,"sier":14396,"ajoute":14397,"oph":14398,"rez":14399,"envoyé":14400,"orientale":14401,"rières":14402,"compagne":14403,"trouvé":14404,"fur":14405,"mené":14406,"églises":14407,"Gon":14408,"World":14409,"frais":14410,"classiques":14411,"dynamique":14412,"igny":14413,"dispute":14414,"contrairement":14415,"rey":14416,"erry":14417,"Jésus":14418,"vainqueur":14419,"excel":14420,"Pin":14421,"érences":14422,"cide":14423,"étoile":14424,"arg":14425,"occit":14426,"versant":14427,"Vier":14428,"situées":14429,"étiques":14430,"laissant":14431,"UN":14432,"Voir":14433,"Bab":14434,"usalem":14435,"marquis":14436,"EN":14437,"ortho":14438,"Luxembourg":14439,"redécoupage":14440,"récla":14441,"comédi":14442,"menac":14443,"enter":14444,"soleil":14445,"RT":14446,"mait":14447,"Bes":14448,"propag":14449,"automobile":14450,"obs":14451,"phra":14452,"Ari":14453,"pur":14454,"vendre":14455,"fred":14456,"mber":14457,"hr":14458,"dios":14459,"riv":14460,"massac":14461,"oubli":14462,"professionnels":14463,"Alsace":14464,"deviendra":14465,"Ern":14466,"précisément":14467,"nécessaires":14468,"Patrick":14469,"tillon":14470,"Res":14471,"reliant":14472,"1953":14473,"Fond":14474,"entin":14475,"diques":14476,"transi":14477,"atten":14478,"serv":14479,"rose":14480,"gratu":14481,"représenté":14482,"verre":14483,"Chic":14484,"succède":14485,"calendrier":14486,"top":14487,"expansion":14488,"interprète":14489,"choses":14490,"jac":14491,"provenant":14492,"mandes":14493,"oth":14494,"illance":14495,"infrastru":14496,"ried":14497,"contra":14498,"systé":14499,"cepti":14500,"dun":14501,"Nam":14502,"cue":14503,"Mons":14504,"entière":14505,"Organisation":14506,"poissons":14507,"Let":14508,"syl":14509,"Tan":14510,"interprété":14511,"marchand":14512,"tram":14513,"Télé":14514,"regard":14515,"céléb":14516,"Vit":14517,"liné":14518,"Anglais":14519,"glob":14520,"urbain":14521,"xy":14522,"scénar":14523,"Hal":14524,"vér":14525,"quante":14526,"forter":14527,"éditeur":14528,"Équi":14529,"vey":14530,"raconte":14531,"VD":14532,"onale":14533,"cérémonie":14534,"éru":14535,"chrétienne":14536,"1943":14537,"signific":14538,"hérit":14539,"anes":14540,"cile":14541,"étudie":14542,"candidats":14543,"maritime":14544,"maréchal":14545,"émissions":14546,"Rock":14547,"nière":14548,"paraît":14549,"bases":14550,"cl":14551,"revenus":14552,"fruits":14553,"reprendre":14554,"envoie":14555,"allon":14556,"particulière":14557,"préfé":14558,"proposition":14559,"Sat":14560,"original":14561,"Lim":14562,"bet":14563,"cala":14564,"Four":14565,"écologique":14566,"améliorer":14567,"installation":14568,"partisans":14569,"cht":14570,"tournage":14571,"vul":14572,"isol":14573,"Sénat":14574,"traditionnelle":14575,"domination":14576,"Math":14577,"plate":14578,"moindre":14579,"marchan":14580,"Sig":14581,"enregistrement":14582,"Hé":14583,"artif":14584,"sule":14585,"ium":14586,"Hongrie":14587,"Garonne":14588,"ventions":14589,"Romains":14590,"tricité":14591,"efficace":14592,"équilibre":14593,"latine":14594,"Iran":14595,"Sci":14596,"final":14597,"tences":14598,"outils":14599,"ouvriers":14600,"Person":14601,"congrès":14602,"Arch":14603,"Jérusalem":14604,"Bir":14605,"EC":14606,"successeur":14607,"clair":14608,"kov":14609,"amir":14610,"pseu":14611,"amou":14612,"attention":14613,"cercle":14614,"américaines":14615,"Compagnie":14616,"surnom":14617,"repose":14618,"Ceci":14619,"blin":14620,"comprendre":14621,"Ken":14622,"complet":14623,"laissé":14624,"municipales":14625,"Yves":14626,"ardins":14627,"centaines":14628,"intégré":14629,"criti":14630,"from":14631,"voi":14632,"1900":14633,"impériale":14634,"vivent":14635,"musical":14636,"landaise":14637,"couche":14638,"Pres":14639,"république":14640,"classification":14641,"mira":14642,"aile":14643,"annu":14644,"insta":14645,"mélange":14646,"nay":14647,"Wash":14648,"rète":14649,"grég":14650,"ola":14651,"lente":14652,"privilég":14653,"1952":14654,"RC":14655,"intérêts":14656,"portés":14657,"rapports":14658,"rales":14659,"fréquemment":14660,"noblesse":14661,"séna":14662,"conserver":14663,"Marguer":14664,"office":14665,"audi":14666,"répartis":14667,"tardi":14668,"existent":14669,"périodes":14670,"1938":14671,"vières":14672,"menace":14673,"célèbres":14674,"argu":14675,"Bill":14676,"gagner":14677,"tourner":14678,"construits":14679,"cop":14680,"condamné":14681,"sey":14682,"signes":14683,"nombres":14684,"quotidien":14685,"départementales":14686,"1790":14687,"1942":14688,"sailles":14689,"lites":14690,"contemporaine":14691,"limitée":14692,"accompagné":14693,"anda":14694,"pauvre":14695,"quiert":14696,"ciation":14697,"pèler":14698,"soix":14699,"loy":14700,"unt":14701,"manuscrit":14702,"Big":14703,"leader":14704,"belles":14705,"colonel":14706,"changements":14707,"sensible":14708,"scolaire":14709,"lets":14710,"troubles":14711,"standard":14712,"passent":14713,"devrait":14714,"attent":14715,"choisit":14716,"Records":14717,"pressions":14718,"hameaux":14719,"has":14720,"manifestations":14721,"inverse":14722,"favorable":14723,"blancs":14724,"Front":14725,"accro":14726,"Grâce":14727,"péd":14728,"Zé":14729,".).":14730,"doctr":14731,"Groupe":14732,"huiti":14733,"eurs":14734,"thèmes":14735,"Font":14736,"Charente":14737,"essai":14738,"extra":14739,"Gou":14740,"similaire":14741,"définit":14742,"Ret":14743,"annuelle":14744,"cali":14745,"ib":14746,"Renaissance":14747,"vocation":14748,"igné":14749,"voyageurs":14750,"fiscalité":14751,"chronique":14752,"profondeur":14753,"longues":14754,"normes":14755,"ménage":14756,"moines":14757,"mette":14758,"directe":14759,"Corée":14760,"eté":14761,"réunion":14762,"possession":14763,"SI":14764,"Cau":14765,"entretien":14766,"extrémité":14767,"souhaite":14768,"vécu":14769,"Fau":14770,"chevalier":14771,"Patrimoine":14772,"feuille":14773,"citoyens":14774,"subit":14775,"iro":14776,"mété":14777,"Hauts":14778,"judiciaire":14779,"concentration":14780,"Washington":14781,"olith":14782,"résidences":14783,"perç":14784,"juridique":14785,"Maroc":14786,"retourne":14787,"provient":14788,"moteurs":14789,"Fam":14790,"Hô":14791,"aérienne":14792,"Homme":14793,"champions":14794,"déclaré":14795,"guitare":14796,"ack":14797,"Arts":14798,"rappro":14799,"érir":14800,"fera":14801,"Quatre":14802,"scand":14803,"King":14804,"francs":14805,"piano":14806,"Musée":14807,"effectuer":14808,"revenir":14809,"signifiant":14810,"équivalent":14811,"Am":14812,"bandes":14813,"démar":14814,"écran":14815,"défendre":14816,"Finalement":14817,"hectares":14818,"ror":14819,"goût":14820,"parfaite":14821,"Commune":14822,"Voies":14823,"attaques":14824,"iers":14825,"Smith":14826,"puisse":14827,"dirigée":14828,"fréquence":14829,"Wol":14830,"rets":14831,"autrich":14832,"exc":14833,"repous":14834,"désigné":14835,"battu":14836,"aîné":14837,"atelier":14838,"spirit":14839,"parte":14840,"étage":14841,"tomb":14842,"aventure":14843,"lom":14844,"tun":14845,"Marguerite":14846,"augmenter":14847,"éré":14848,"chœur":14849,"environs":14850,"féminin":14851,"Argentine":14852,"ciers":14853,"gren":14854,"Yo":14855,"réglement":14856,"cru":14857,"Parc":14858,"tiles":14859,"fortes":14860,"montré":14861,"ria":14862,"couvert":14863,"séparation":14864,"possèdent":14865,"catégories":14866,"Lee":14867,"adis":14868,"ims":14869,"Adam":14870,"déterminer":14871,"complément":14872,"chiffres":14873,"faute":14874,"TA":14875,"ventes":14876,"pieds":14877,"ed":14878,"côtes":14879,"températures":14880,"campagnes":14881,"foi":14882,"veau":14883,"soutient":14884,"corpor":14885,"sixième":14886,"gs":14887,"équipements":14888,"garder":14889,"germanique":14890,"Nouveau":14891,"étang":14892,"classée":14893,"scrutin":14894,"tropic":14895,"disponibles":14896,"intr":14897,"1951":14898,"vues":14899,"1941":14900,"lité":14901,"dae":14902,"MI":14903,"esc":14904,"invasion":14905,"anni":14906,"1937":14907,"révolte":14908,"tille":14909,"couron":14910,"caire":14911,"pourquoi":14912,"unies":14913,"chercheurs":14914,"démographique":14915,"expliquer":14916,"mys":14917,"psis":14918,"frontières":14919,"confron":14920,"bol":14921,"labo":14922,"troupe":14923,"Soleil":14924,"jazz":14925,"donna":14926,"tissage":14927,"Cre":14928,"èche":14929,"employé":14930,"colonie":14931,"franc":14932,"étudier":14933,"yl":14934,"répan":14935,"commencent":14936,"nan":14937,"aro":14938,"bilités":14939,"orthodo":14940,"balle":14941,"maladies":14942,"artillerie":14943,"composés":14944,"magas":14945,"torat":14946,"rappelle":14947,"suéd":14948,"SD":14949,"égalité":14950,"Chau":14951,"concurrence":14952,"facteurs":14953,"Versailles":14954,"conséquences":14955,"sportive":14956,"Nice":14957,"paysage":14958,"diamètre":14959,"atrice":14960,"industri":14961,"tific":14962,"adres":14963,"conservation":14964,"territoriale":14965,"proto":14966,"Syno":14967,"inférieure":14968,"Division":14969,"laine":14970,"maxima":14971,"montrent":14972,"hyper":14973,"algé":14974,"Christophe":14975,"hong":14976,"suivie":14977,"espo":14978,"Transports":14979,"réputation":14980,"beaux":14981,"Chapelle":14982,"XIV":14983,"performance":14984,"orientation":14985,"gade":14986,"ature":14987,"Même":14988,"lieue":14989,"anat":14990,"violence":14991,"échanges":14992,"instar":14993,"solu":14994,"ics":14995,")\"":14996,"possibles":14997,"well":14998,"intellig":14999,"post":15000,"impact":15001,"pus":15002,"flan":15003,"touche":15004,"autonomie":15005,"Va":15006,"description":15007,"Park":15008,"embar":15009,"Peti":15010,"annoncé":15011,"hoc":15012,"vali":15013,"Convention":15014,"rarement":15015,"1919":15016,"rente":15017,"Président":15018,"distingu":15019,"natur":15020,"électricité":15021,"ométrie":15022,"ïdes":15023,"mier":15024,"connait":15025,"administratifs":15026,"gris":15027,"laï":15028,"papier":15029,"Yu":15030,"Maur":15031,"destinée":15032,"adjoint":15033,"Fra":15034,"tz":15035,"URSS":15036,"International":15037,"japonaise":15038,"Tré":15039,"sole":15040,"compagnies":15041,"stratégie":15042,"organisations":15043,"Ama":15044,"mule":15045,"ientôt":15046,"alimentation":15047,"huile":15048,"présentation":15049,"voitures":15050,"grés":15051,"Madrid":15052,"fiés":15053,"Lit":15054,"tantes":15055,"param":15056,"1933":15057,"relative":15058,"musulman":15059,"Clermont":15060,"performances":15061,"télévisée":15062,"Open":15063,"penser":15064,"conçu":15065,"tera":15066,"alliés":15067,"objectifs":15068,"monte":15069,"pié":15070,"omique":15071,"1929":15072,"extrêmement":15073,"botan":15074,"quette":15075,"catégorisée":15076,"regroupant":15077,"Sen":15078,"ènement":15079,"zu":15080,"Fil":15081,"divisions":15082,"monnaie":15083,"défend":15084,"constructions":15085,"machines":15086,"wi":15087,"entend":15088,"titulaire":15089,"responsabilité":15090,"provisoire":15091,"pota":15092,"Santa":15093,"jardins":15094,"Red":15095,"mètre":15096,"recueil":15097,"toit":15098,"desc":15099,"représenter":15100,"cabinet":15101,"arbit":15102,"accélé":15103,"Fontaine":15104,"glace":15105,"Im":15106,"Chev":15107,"tige":15108,"difficulté":15109,"enregistré":15110,"zé":15111,"postes":15112,"moulin":15113,"constituer":15114,"augmente":15115,"reurs":15116,"Olivier":15117,"exig":15118,"semblent":15119,"1789":15120,"funéra":15121,"ariste":15122,"technologie":15123,"Mans":15124,"commerciale":15125,"chimie":15126,"prêtre":15127,"Made":15128,"conqu":15129,"PI":15130,"Mars":15131,"boudd":15132,"recevoir":15133,"Nar":15134,"cott":15135,"baptis":15136,"renommée":15137,"oiseau":15138,"simples":15139,"cardinal":15140,"gais":15141,"investis":15142,"Blanc":15143,"enc":15144,"mides":15145,"fame":15146,"ez":15147,"obligatoire":15148,"Wh":15149,"fichi":15150,"licence":15151,"accueillir":15152,"grade":15153,"quarante":15154,"ols":15155,"voisine":15156,"cins":15157,"partition":15158,"1935":15159,"Tours":15160,"paroissi":15161,"Ard":15162,"variables":15163,"fief":15164,"Dro":15165,"cts":15166,"fournit":15167,"\"\".":15168,"spécifiques":15169,"oncle":15170,"ption":15171,"avocat":15172,"précipitations":15173,"Noël":15174,"Chez":15175,"illan":15176,"vendu":15177,"trace":15178,"appui":15179,"Palais":15180,"Poly":15181,"préparation":15182,"froid":15183,"Synopsis":15184,"oble":15185,"compétences":15186,"hés":15187,"AM":15188,"Hame":15189,"lip":15190,"cinquante":15191,"employés":15192,"insur":15193,"Loir":15194,"internationaux":15195,"sché":15196,"transmission":15197,"Vé":15198,"phal":15199,"illés":15200,"Cur":15201,"réduction":15202,"Fr":15203,"couverture":15204,"docteur":15205,"proposé":15206,"Julien":15207,"sax":15208,"ligue":15209,"abrit":15210,"accords":15211,"chimique":15212,"organismes":15213,"UE":15214,"ousse":15215,"inond":15216,"Situation":15217,"Gilles":15218,"émo":15219,"ministres":15220,"Lau":15221,"1934":15222,"virus":15223,"remplacement":15224,"procédé":15225,"éter":15226,"mentation":15227,"normale":15228,"Dane":15229,"simpli":15230,"burg":15231,"gard":15232,"PD":15233,"princesse":15234,"nam":15235,"courses":15236,"œil":15237,"boî":15238,"Chicago":15239,"devenant":15240,"mages":15241,"différente":15242,"ramide":15243,"Tech":15244,"réfugi":15245,"ottom":15246,"Champagne":15247,"Équipe":15248,"pharma":15249,"ary":15250,"installations":15251,"épar":15252,"blis":15253,"variable":15254,"culturelles":15255,"arre":15256,"Tru":15257,"dore":15258,"journaux":15259,"toponyme":15260,"morte":15261,"Moselle":15262,"ken":15263,"empêcher":15264,"appren":15265,"erreur":15266,"path":15267,"exper":15268,"soutenu":15269,"Bol":15270,"tau":15271,"acqu":15272,"Jim":15273,"lancement":15274,"ruption":15275,"Dal":15276,"degré":15277,"colline":15278,"légation":15279,"banlieue":15280,"sportif":15281,"adopté":15282,"fêtes":15283,"Grenoble":15284,"saient":15285,"toile":15286,"essor":15287,"Venise":15288,"adversaire":15289,"istiques":15290,"pouvaient":15291,"discipline":15292,"Fa":15293,"bris":15294,"accessible":15295,"inno":15296,"coû":15297,"courants":15298,"dizaine":15299,"110":15300,"Agri":15301,"arn":15302,"blo":15303,"Alfred":15304,"ight":15305,"Médi":15306,"terrestre":15307,"étaire":15308,"agir":15309,"morceaux":15310,"étapes":15311,"perspec":15312,"Metz":15313,"disper":15314,"Bran":15315,"intention":15316,"Louise":15317,"épais":15318,"Marine":15319,"rédaction":15320,"débar":15321,"1910":15322,"divisé":15323,"solo":15324,"tuer":15325,"vement":15326,"interro":15327,"oni":15328,"suis":15329,"communications":15330,"secteurs":15331,"élite":15332,"mel":15333,"Constantino":15334,"hautes":15335,"baie":15336,"exercice":15337,"volontaire":15338,"Ris":15339,"soumis":15340,"dieux":15341,"assemb":15342,"différent":15343,"barrage":15344,"jection":15345,"rouges":15346,"organisme":15347,"consacre":15348,"gâ":15349,"kan":15350,"typique":15351,"responsables":15352,"Pap":15353,"Football":15354,"Poitiers":15355,"aigu":15356,"minimum":15357,"logiciel":15358,"secours":15359,"roc":15360,"Mary":15361,"intégration":15362,"bons":15363,"chrom":15364,"esses":15365,"adoles":15366,"trag":15367,"raire":15368,"chou":15369,"Carol":15370,"turb":15371,"coups":15372,"trant":15373,"Syl":15374,"dimanche":15375,"cienne":15376,"tables":15377,"christi":15378,"Corse":15379,"occitan":15380,"Fri":15381,"fantas":15382,"vages":15383,"lisation":15384,"1932":15385,"ctique":15386,"quator":15387,"heb":15388,"humaines":15389,"SE":15390,"Laur":15391,"thèses":15392,"secret":15393,"fouilles":15394,"Hab":15395,"avenue":15396,"cente":15397,"chauff":15398,"Région":15399,"archevêque":15400,"Rouge":15401,"leu":15402,"engagement":15403,"personnalité":15404,"diplôme":15405,"évacu":15406,"VII":15407,"Constantinople":15408,"disques":15409,"sports":15410,"organiser":15411,"engagé":15412,"considérés":15413,"impor":15414,"faux":15415,"érou":15416,"Laval":15417,"IE":15418,"Carac":15419,"respect":15420,"âgé":15421,"Sans":15422,"1926":15423,"découvrir":15424,"épreuves":15425,"édité":15426,"chas":15427,"wis":15428,"rapproche":15429,"orbite":15430,"proch":15431,"secondes":15432,"partiellement":15433,"rural":15434,"autonome":15435,"forts":15436,"tume":15437,"métropolit":15438,"physiques":15439,"Stan":15440,"conseils":15441,"alisées":15442,"Stre":15443,"liques":15444,"agré":15445,"conflits":15446,"démocrate":15447,"Kh":15448,"rupture":15449,"primi":15450,"115":15451,"intitulée":15452,"tistes":15453,"Ki":15454,"inée":15455,"Liber":15456,"championnats":15457,"illustre":15458,"gamme":15459,"exac":15460,"gui":15461,"cry":15462,"changer":15463,"décennies":15464,"dessins":15465,"puissant":15466,"croise":15467,"introduction":15468,"Eugène":15469,"biais":15470,"colonies":15471,"régionales":15472,"fos":15473,"mam":15474,"1924":15475,"SC":15476,"rassemb":15477,"ties":15478,"ato":15479,"présentes":15480,"ignon":15481,"radic":15482,"éco":15483,"prenait":15484,"constante":15485,"développée":15486,"complexes":15487,"Sul":15488,"émis":15489,"héritier":15490,"Imp":15491,"écart":15492,"Tex":15493,"ennemis":15494,"panne":15495,"Géologie":15496,"onyme":15497,"vaisseau":15498,"hydr":15499,"juive":15500,"alentour":15501,"1928":15502,"fermet":15503,"fournir":15504,"Danemark":15505,"tensions":15506,"pertes":15507,"mbert":15508,"électriques":15509,"Cab":15510,"cio":15511,"noirs":15512,"observation":15513,"harmon":15514,"appareils":15515,"Franche":15516,"suffisamment":15517,"PR":15518,"lever":15519,"préfet":15520,"élar":15521,"Émile":15522,"hospit":15523,"intégr":15524,"caux":15525,"nécessité":15526,"Dominique":15527,"productions":15528,"attache":15529,"égal":15530,"Tok":15531,"financière":15532,"bs":15533,"exclusivement":15534,"tos":15535,"ménag":15536,"universités":15537,"Code":15538,"bientôt":15539,"peuplée":15540,"cula":15541,"éen":15542,"bateau":15543,"philosoph":15544,"lire":15545,"matur":15546,"astre":15547,"arr":15548,"représentations":15549,"équipage":15550,"agence":15551,"supprim":15552,"remarquable":15553,"poésie":15554,"ida":15555,"symbol":15556,"impul":15557,"duquel":15558,"vio":15559,"découvertes":15560,"Vierge":15561,"isra":15562,"Auc":15563,"musulmans":15564,"inspire":15565,"opti":15566,"plomb":15567,"lova":15568,"Conf":15569,"goth":15570,"parts":15571,"pun":15572,"inventaire":15573,"DVD":15574,"ey":15575,"néerlandais":15576,"confiance":15577,"plais":15578,"allemandes":15579,"Quant":15580,"Sports":15581,"ian":15582,"figur":15583,"marchés":15584,"Afin":15585,"Jou":15586,"simul":15587,"inscription":15588,"Juli":15589,"orgue":15590,"Muni":15591,"tenter":15592,"recours":15593,"Bourbon":15594,"collectif":15595,"field":15596,"Dr":15597,"Britanniques":15598,"Reims":15599,"Barce":15600,"exemples":15601,"incen":15602,"solaire":15603,"septième":15604,"amiral":15605,"flot":15606,"endo":15607,"qualifie":15608,"Tunis":15609,"chia":15610,"agé":15611,"majoritairement":15612,"phérique":15613,"domes":15614,"ones":15615,"paysans":15616,"rette":15617,"ht":15618,"Ay":15619,"âme":15620,"1925":15621,"volumes":15622,"Gabriel":15623,"affiche":15624,"spatiale":15625,"suici":15626,"tint":15627,"Puy":15628,"administratives":15629,"vivants":15630,"phas":15631,"suffrages":15632,"efforts":15633,"froi":15634,"duo":15635,"communi":15636,"bilan":15637,"confirme":15638,"communistes":15639,"chimiques":15640,"consis":15641,"visibles":15642,"aste":15643,"atmosphère":15644,"Théâtre":15645,"danger":15646,"interrom":15647,"Méditerran":15648,"catas":15649,"dité":15650,"mun":15651,"iciels":15652,"noyau":15653,"Clo":15654,"Lot":15655,"Francisco":15656,"Mol":15657,"dites":15658,"bos":15659,"protég":15660,"figures":15661,"Très":15662,"santes":15663,"dal":15664,"Prés":15665,"Pacifique":15666,"Lorsqu":15667,"systématique":15668,"successivement":15669,"automatique":15670,"gares":15671,"couverte":15672,"potentiel":15673,"dimensions":15674,"éteint":15675,"nou":15676,"ican":15677,"impossible":15678,"réunit":15679,"fan":15680,"itation":15681,"agents":15682,"chinoise":15683,"armé":15684,"pén":15685,"immeu":15686,"intégra":15687,"LN":15688,"Ol":15689,"compétitions":15690,"destination":15691,"lisabeth":15692,"rapporte":15693,"Six":15694,"Mul":15695,"ns":15696,"touristique":15697,"reconnais":15698,"marin":15699,"suites":15700,"traditionnel":15701,"républicain":15702,"pôle":15703,"Calais":15704,"Emmanuel":15705,"progrès":15706,"thènes":15707,"travailleurs":15708,"adapté":15709,"pion":15710,"voisins":15711,"ordinaire":15712,"èvement":15713,"associée":15714,"XIII":15715,"plur":15716,"ders":15717,"euve":15718,"forteresse":15719,"perpé":15720,"Gusta":15721,"chaînes":15722,"présentant":15723,"esthé":15724,"utile":15725,"topony":15726,"Athènes":15727,"ninsule":15728,"illég":15729,"parole":15730,"wick":15731,"anciennement":15732,"canadien":15733,"iger":15734,"Châte":15735,"Las":15736,"applications":15737,"indépendante":15738,"outil":15739,"Fern":15740,"inqui":15741,"Rennes":15742,"ament":15743,"olie":15744,"emprison":15745,"alition":15746,"méditerran":15747,"écriv":15748,"Liège":15749,"Cel":15750,"Anjou":15751,"ordinateur":15752,"ignée":15753,"lard":15754,"charges":15755,"étendue":15756,"itimes":15757,"couvent":15758,"Féli":15759,"rité":15760,"inde":15761,"réalisés":15762,"amitié":15763,"atifs":15764,"Méditerranée":15765,"Ordre":15766,"Roland":15767,"By":15768,"domad":15769,"éclai":15770,"Seu":15771,"olithique":15772,"académie":15773,"alcool":15774,"volcan":15775,"nières":15776,"una":15777,"Turquie":15778,"Œu":15779,"alimentaire":15780,"distinguer":15781,"Syn":15782,"Eli":15783,"rythme":15784,"héber":15785,"Sour":15786,"paroles":15787,"chine":15788,"sentiment":15789,"existait":15790,"Bâ":15791,"illard":15792,"marais":15793,"Ferdin":15794,"str":15795,"gère":15796,"produc":15797,"loir":15798,"chaleur":15799,"hebdomad":15800,"formés":15801,"apparaître":15802,"suscepti":15803,"nourriture":15804,"...)":15805,"iso":15806,"abu":15807,"pédagog":15808,"libres":15809,"apporte":15810,"approuv":15811,"attribué":15812,"parlementaire":15813,"Mark":15814,"treize":15815,"perdre":15816,"neige":15817,"tence":15818,"nommés":15819,"Mort":15820,"acités":15821,"québécois":15822,"zen":15823,"voile":15824,"ory":15825,"chanteuse":15826,"opinion":15827,"tableaux":15828,"plé":15829,"Noir":15830,"gny":15831,"différen":15832,"agres":15833,"zac":15834,"centr":15835,"intervient":15836,"aspects":15837,"carbone":15838,"maximale":15839,"accéder":15840,"Ans":15841,"particuliers":15842,"tifié":15843,"itions":15844,"jouent":15845,"Journal":15846,"abandonné":15847,"gale":15848,"nef":15849,"Gaulle":15850,"1931":15851,"provinci":15852,"Juan":15853,"homo":15854,"1912":15855,"MA":15856,"MS":15857,"sév":15858,"prolong":15859,"oulins":15860,"térité":15861,"Ferdinand":15862,"décédé":15863,"SNCF":15864,"voisin":15865,"partout":15866,"subi":15867,"violon":15868,"marès":15869,"Sac":15870,"béta":15871,"istr":15872,"tisation":15873,"chu":15874,"ning":15875,"génétique":15876,"ajouter":15877,"insectes":15878,"marchandis":15879,"résu":15880,"Nancy":15881,"remise":15882,"supplémentaires":15883,"seules":15884,"maternelle":15885,"particules":15886,"client":15887,"stratégique":15888,"1921":15889,"isemb":15890,"nécessit":15891,"remporter":15892,"114":15893,"Nap":15894,"siste":15895,"devaient":15896,"nerie":15897,"Américains":15898,"limitrophe":15899,"imposer":15900,"optique":15901,"oi":15902,"cantonal":15903,"démi":15904,"hiér":15905,"çait":15906,"viron":15907,"œufs":15908,"vérité":15909,"Rac":15910,"ades":15911,"térieure":15912,"chaud":15913,"véhicule":15914,"finales":15915,"prieuré":15916,"1860":15917,"tennis":15918,"intercommunale":15919,"\":":15920,"Seul":15921,"philosophe":15922,"orph":15923,"1917":15924,"salon":15925,"Sun":15926,"avenir":15927,"tat":15928,"austral":15929,"Alli":15930,"Fl":15931,"illen":15932,"météor":15933,"sainte":15934,"sacri":15935,"Livre":15936,"fermé":15937,"compati":15938,"tenance":15939,"publiés":15940,"capital":15941,"définir":15942,"1801":15943,"Tit":15944,"transition":15945,"600":15946,"Charle":15947,"Autre":15948,"corde":15949,"matières":15950,"iliers":15951,"queue":15952,"inscri":15953,"précision":15954,"occuper":15955,"huitième":15956,"égard":15957,"Opé":15958,"orce":15959,"Léo":15960,"cence":15961,"soutenir":15962,"Scho":15963,"liquide":15964,"fense":15965,"négociations":15966,"poursuivre":15967,"Ja":15968,"Norv":15969,"cylin":15970,"charbon":15971,"Mir":15972,"sien":15973,"rak":15974,"Somme":15975,"soixante":15976,"Norvège":15977,"énon":15978,"personnelle":15979,"Bis":15980,"arrêter":15981,"tribus":15982,"Nous":15983,"conséquent":15984,"laboratoire":15985,"détec":15986,"indis":15987,"1927":15988,"syndicat":15989,"accompagne":15990,"déclaration":15991,"répondre":15992,"connaissances":15993,"Ier":15994,"triom":15995,"Bec":15996,"états":15997,"Apol":15998,"synthèse":15999,"chor":16000,"low":16001,"bateaux":16002,"ild":16003,"possédait":16004,"répond":16005,"procédure":16006,"vraisemb":16007,"Nob":16008,"lots":16009,"dédiée":16010,"baptisé":16011,"phénomènes":16012,"correc":16013,"viers":16014,"capacités":16015,"diffusé":16016,"kar":16017,"sanctu":16018,"det":16019,"Toutes":16020,"Occit":16021,"colonnes":16022,"ght":16023,"procure":16024,"époux":16025,"Exemp":16026,"distinction":16027,"échapper":16028,"117":16029,"tournant":16030,"longs":16031,"cavalerie":16032,"alys":16033,"adhé":16034,"ited":16035,"carré":16036,"clocher":16037,"opposé":16038,"foot":16039,"éti":16040,"retrouvent":16041,"1848":16042,"effectué":16043,"113":16044,"terror":16045,"fontaine":16046,"collections":16047,"lues":16048,"architectur":16049,"payer":16050,"abor":16051,"génie":16052,"mentionné":16053,"expériences":16054,"facteur":16055,"zar":16056,"continuer":16057,"nettement":16058,"difficiles":16059,"sla":16060,"Wi":16061,"Étymologie":16062,"juifs":16063,"décident":16064,"exerce":16065,"Reich":16066,"pente":16067,"offensive":16068,"tracé":16069,"intégrer":16070,"masculine":16071,"chien":16072,"communale":16073,"relais":16074,"poème":16075,"contraint":16076,"emplois":16077,"cristal":16078,"pourraient":16079,"capables":16080,"cinémat":16081,"Flan":16082,"message":16083,"morale":16084,"réelle":16085,"Chal":16086,"substitu":16087,"zaine":16088,"vingtaine":16089,"civilisation":16090,"passagers":16091,"polonais":16092,"Force":16093,"phil":16094,"lancée":16095,"établie":16096,"poèmes":16097,"maîtrise":16098,"popularité":16099,"isit":16100,"Jacob":16101,"iement":16102,"évêques":16103,"quait":16104,"récur":16105,"signature":16106,"solide":16107,"Gor":16108,"péninsule":16109,"débu":16110,"Ceux":16111,"culmin":16112,"adultes":16113,"financement":16114,"Légion":16115,"méridi":16116,"Rouen":16117,"1905":16118,"sav":16119,"exécutif":16120,"vieille":16121,"synthé":16122,"Hall":16123,"rad":16124,"amont":16125,"probable":16126,"Parallè":16127,"mourut":16128,"peintures":16129,"diagnos":16130,"importe":16131,"saur":16132,"ruines":16133,"ardie":16134,"veurs":16135,"Affaires":16136,"Bona":16137,"traversé":16138,"douce":16139,"participent":16140,"Ah":16141,"flux":16142,"prême":16143,"ailes":16144,"Rose":16145,"reconstruction":16146,"dispositif":16147,"Beno":16148,"siens":16149,"chargée":16150,"nécessite":16151,"Oscar":16152,"laient":16153,"traditions":16154,"vallées":16155,"évidence":16156,"1922":16157,"théorème":16158,"parcour":16159,"Libé":16160,"inclin":16161,"curé":16162,"Mala":16163,"Basse":16164,"niste":16165,"homonymie":16166,"camps":16167,"esclaves":16168,"Sho":16169,"imprim":16170,"Barcelone":16171,"dents":16172,"producteurs":16173,"métier":16174,"arist":16175,"112":16176,"ardo":16177,"Loi":16178,"1830":16179,"metal":16180,"Publi":16181,"associés":16182,"Aur":16183,"adresse":16184,"maillot":16185,"centaine":16186,"Tal":16187,"inauguré":16188,"sk":16189,"plage":16190,"fournis":16191,"salariés":16192,"Pit":16193,"concurrent":16194,"contribue":16195,"scénariste":16196,"illac":16197,"conduc":16198,"Congo":16199,"références":16200,"céra":16201,"support":16202,"Ry":16203,"talent":16204,"Serge":16205,"ponyme":16206,"occupée":16207,"Ci":16208,"verte":16209,"Carl":16210,"amélior":16211,"chercher":16212,"ander":16213,"sp":16214,"vaise":16215,"pauvres":16216,"doctrine":16217,"demander":16218,"décer":16219,"TF":16220,"cible":16221,"compi":16222,"esseurs":16223,"hockey":16224,"rachet":16225,"ixe":16226,"consacrée":16227,"mixte":16228,"Parallèlement":16229,"1923":16230,"banque":16231,"linguistique":16232,"horizon":16233,"Cir":16234,"Maine":16235,"Thierry":16236,"différences":16237,"fel":16238,"urgie":16239,"dizaines":16240,"héritage":16241,"exam":16242,"mobilier":16243,"blessé":16244,"800":16245,"Nic":16246,"OT":16247,"Indi":16248,"(,":16249,"cancer":16250,"Gouver":16251,"aristocra":16252,"angu":16253,"illiers":16254,"correspondance":16255,"Vos":16256,"angé":16257,"xes":16258,"égale":16259,"acquisition":16260,"portées":16261,"American":16262,"dez":16263,"produite":16264,"Gros":16265,"maintien":16266,"116":16267,"Doc":16268,"rotation":16269,"inspiration":16270,"clairement":16271,"réformes":16272,"maçon":16273,"Lav":16274,"filiale":16275,"branches":16276,"press":16277,"haï":16278,"surfaces":16279,"osité":16280,"surveillance":16281,"haus":16282,"gend":16283,"abandonne":16284,"efficacité":16285,"restes":16286,"débarque":16287,"trand":16288,"tourné":16289,"Montpel":16290,"neveu":16291,"retrouvé":16292,"Sec":16293,"quier":16294,"visage":16295,"1913":16296,"Temple":16297,"divisée":16298,"réci":16299,"Sté":16300,"édu":16301,"fondément":16302,"franchise":16303,"agissait":16304,"symbolique":16305,"désa":16306,"boulevard":16307,"onge":16308,"ecclé":16309,"alphabet":16310,"Zélande":16311,"vint":16312,"Occitanie":16313,"âges":16314,"chô":16315,"Environ":16316,"durable":16317,"dramatique":16318,"examen":16319,"portrait":16320,"ota":16321,"sépare":16322,"déplacement":16323,"représentée":16324,"fermeture":16325,"creus":16326,"invit":16327,"tolé":16328,"lière":16329,"Défense":16330,"surnommé":16331,"commença":16332,"polis":16333,"étés":16334,"Karl":16335,"gorith":16336,"canadienne":16337,"color":16338,"démocratie":16339,"galerie":16340,"téro":16341,"Sicile":16342,"commencer":16343,"glis":16344,"richesse":16345,"miers":16346,"Clar":16347,"Aix":16348,"approxima":16349,"Hitler":16350,"OC":16351,"nisme":16352,"commerces":16353,"archipel":16354,"Pie":16355,"mid":16356,"conservateur":16357,"Jeunesse":16358,"urbanisme":16359,"Ath":16360,"prest":16361,"Benoît":16362,"Som":16363,"prêtres":16364,"rendent":16365,"istère":16366,"Prince":16367,"monter":16368,"médecins":16369,"marques":16370,"alyse":16371,"théorique":16372,"reconnaît":16373,"kes":16374,"résolution":16375,"supporter":16376,"web":16377,"dir":16378,"hauts":16379,"choc":16380,"décennie":16381,"reçut":16382,"serie":16383,"étrangère":16384,"Phil":16385,"PA":16386,"ibilité":16387,"critères":16388,"sugg":16389,"chers":16390,"GE":16391,"aqua":16392,"inture":16393,"végé":16394,"inscrits":16395,"ller":16396,"modifications":16397,"250":16398,"Cav":16399,"véni":16400,"océanique":16401,"fères":16402,"All":16403,"Colom":16404,"sibles":16405,"exploitations":16406,"récompen":16407,"écos":16408,"visiteurs":16409,"Montpellier":16410,"destinés":16411,"libéré":16412,"placée":16413,"fréquente":16414,"iron":16415,"mauvaise":16416,"incident":16417,"morceau":16418,"qualités":16419,"Bonaparte":16420,"guitariste":16421,"apprentissage":16422,"Adol":16423,"financier":16424,"gardien":16425,"instruction":16426,"débou":16427,"mbles":16428,"anges":16429,"Len":16430,"plat":16431,"Ten":16432,"anime":16433,"Té":16434,"lio":16435,"brun":16436,"resté":16437,"médica":16438,"ST":16439,"fondateurs":16440,"Intercommun":16441,"appelées":16442,"Éle":16443,"bonnes":16444,"infrastructures":16445,"ailles":16446,"Syrie":16447,"servant":16448,"pte":16449,"1880":16450,"Roumanie":16451,"effectif":16452,"lèvement":16453,"rot":16454,"ency":16455,"sœurs":16456,"vapeur":16457,"vendus":16458,"honor":16459,"christianisme":16460,"intégrée":16461,"Ala":16462,"Gard":16463,"retard":16464,"terri":16465,"fidèles":16466,"réduite":16467,"bier":16468,"humanité":16469,"abe":16470,"arriver":16471,"Fal":16472,"reproduction":16473,"Cop":16474,"rivières":16475,"mensu":16476,"pice":16477,"future":16478,"quotidienne":16479,"assassinat":16480,"1911":16481,"tonnes":16482,"Lion":16483,"discus":16484,"xi":16485,"1850":16486,"Épo":16487,"Fils":16488,"schéma":16489,"préhen":16490,"Music":16491,"caractér":16492,"histoires":16493,"adulte":16494,"marie":16495,"coordon":16496,"régi":16497,"annuel":16498,"Uti":16499,"lages":16500,"domine":16501,"empêche":16502,"Europé":16503,"pétrole":16504,"notes":16505,"Green":16506,"avre":16507,"ocie":16508,"Bet":16509,"avie":16510,"voulait":16511,"acquiert":16512,"exige":16513,"fortune":16514,"Lune":16515,"verti":16516,"Eur":16517,"fum":16518,"assass":16519,"identique":16520,"qualification":16521,"dépit":16522,"NA":16523,"attaquer":16524,"voisines":16525,"Cinq":16526,"remis":16527,"piques":16528,"chrétien":16529,"Kir":16530,"Fried":16531,"Cit":16532,"caractérise":16533,"fri":16534,"Capit":16535,"Intercommunalité":16536,"agon":16537,"mythologie":16538,"traités":16539,"privilégi":16540,"ondre":16541,"intéresse":16542,"vus":16543,"aumes":16544,"profite":16545,"Origine":16546,"racines":16547,"dissi":16548,"produisent":16549,"Pascal":16550,"équation":16551,";/":16552,"Ais":16553,"libéral":16554,"tch":16555,"118":16556,"dame":16557,"considérablement":16558,"Hans":16559,"profondément":16560,"abri":16561,"autorisation":16562,"déla":16563,"Diff":16564,"compétence":16565,"dossi":16566,"Fondation":16567,"archéologiques":16568,"perspective":16569,"monarchie":16570,"coalition":16571,"plaque":16572,"quarts":16573,"érant":16574,"CC":16575,"Hip":16576,"yé":16577,"wards":16578,"imper":16579,"lum":16580,"mations":16581,"cension":16582,"League":16583,"colonne":16584,"particularité":16585,"cousin":16586,"travaillé":16587,"Gio":16588,"légère":16589,"comptes":16590,"ressort":16591,"disc":16592,"détruite":16593,"sia":16594,"oises":16595,"chal":16596,"variations":16597,"bais":16598,"side":16599,"théories":16600,"Blanche":16601,"installée":16602,"Ale":16603,"soulig":16604,"instant":16605,"Vla":16606,"réflexion":16607,"ius":16608,"immense":16609,"crime":16610,"districts":16611,"lax":16612,"incluant":16613,"descendants":16614,"sections":16615,"caires":16616,"neutr":16617,"Bataille":16618,"Jones":16619,"Bertrand":16620,"règlement":16621,"prouv":16622,"contemporain":16623,"ingén":16624,"prénom":16625,"taxe":16626,"…)":16627,"sauve":16628,"pilotes":16629,"enfu":16630,"sécu":16631,"Canal":16632,"effondre":16633,"ressemb":16634,"littéraires":16635,"arabes":16636,"faculté":16637,"rempl":16638,"métrique":16639,"Dol":16640,"métrage":16641,"dri":16642,"tia":16643,"Aris":16644,"créés":16645,"crimine":16646,"colons":16647,"dénomination":16648,"folk":16649,"1908":16650,"médiévale":16651,"dépasse":16652,"versé":16653,"doux":16654,"vague":16655,"promis":16656,"princes":16657,"thi":16658,"Windo":16659,"basil":16660,"Provin":16661,"échou":16662,"quatorze":16663,"DE":16664,"try":16665,"défaites":16666,"usines":16667,"fiées":16668,"Tim":16669,"cuivre":16670,"Hameaux":16671,"Roc":16672,"êtements":16673,"batterie":16674,"charte":16675,"contribué":16676,"isées":16677,"seize":16678,"tales":16679,"simultan":16680,"GV":16681,"exprime":16682,"soudre":16683,"absolu":16684,"métropole":16685,"thermique":16686,"('":16687,"câ":16688,"alentours":16689,"financiers":16690,"Jer":16691,"Flandre":16692,"aventures":16693,"PL":16694,"terdam":16695,"canons":16696,"documentaire":16697,"leine":16698,"zième":16699,"réc":16700,"comprise":16701,"Office":16702,"ecclésias":16703,"RI":16704,"pid":16705,"Chron":16706,"king":16707,"midi":16708,"installés":16709,"mobile":16710,"chê":16711,"intérieure":16712,"décisions":16713,"iff":16714,"sienne":16715,"Galles":16716,"uréat":16717,"micité":16718,"grosses":16719,"conjo":16720,"sémin":16721,"United":16722,"attitude":16723,"technologies":16724,"vols":16725,"itude":16726,"quasiment":16727,"Sin":16728,"Micro":16729,"viande":16730,"civils":16731,"Syst":16732,"Cr":16733,"dispositions":16734,"Johnson":16735,"variétés":16736,"gosla":16737,"Mouve":16738,"impulsion":16739,"dements":16740,"Ernest":16741,"ramme":16742,"sug":16743,"Chan":16744,"Colomb":16745,"Donald":16746,"tués":16747,"Anna":16748,"inclut":16749,"then":16750,"Canadi":16751,"calcaire":16752,"fuge":16753,"apparence":16754,"électoral":16755,"racine":16756,"stabil":16757,"instance":16758,"colonisation":16759,"illo":16760,"prévue":16761,"Sand":16762,"causes":16763,"arrivent":16764,"Isère":16765,"encad":16766,"Sébas":16767,"majeurs":16768,"fruit":16769,"chômage":16770,"changé":16771,"spéciale":16772,"couches":16773,"manifeste":16774,"satellite":16775,"indiens":16776,"ïn":16777,"récits":16778,"présentée":16779,"Ton":16780,"graves":16781,"Wat":16782,"motifs":16783,"chaussée":16784,"quitté":16785,"hebdomadaire":16786,"lables":16787,"feux":16788,"devoir":16789,"tivis":16790,"invité":16791,"remplacée":16792,"Glo":16793,"Alphon":16794,"Scott":16795,"lisme":16796,"privés":16797,"gang":16798,"ilien":16799,"suprême":16800,"traditionnellement":16801,"box":16802,"pousse":16803,"contemporains":16804,"vraisemblable":16805,"récep":16806,"dérivé":16807,"Ensuite":16808,"facile":16809,"mm":16810,"limiter":16811,"sat":16812,"habituellement":16813,"arrête":16814,"rine":16815,"algorith":16816,"intervie":16817,"défaut":16818,"aque":16819,"littéralement":16820,"financières":16821,"phos":16822,"Anth":16823,"cuisine":16824,"marchandises":16825,"Maritime":16826,"config":16827,"témoigne":16828,"pistes":16829,"réserves":16830,"habitant":16831,"dirigeant":16832,"ménages":16833,"captur":16834,"héro":16835,"Hugo":16836,"parisien":16837,"Service":16838,"Jos":16839,"classés":16840,"bère":16841,"phases":16842,"défi":16843,"forcé":16844,"ico":16845,"med":16846,"discip":16847,"Antonio":16848,"Isabelle":16849,"Grec":16850,"crimin":16851,"achat":16852,"Vallée":16853,"fédérale":16854,"construites":16855,"musicien":16856,"Robin":16857,".&":16858,"venait":16859,"aperç":16860,"puits":16861,"implique":16862,"entraînement":16863,"assurée":16864,"endroits":16865,"gan":16866,"reconnue":16867,"inhu":16868,"amie":16869,"Dre":16870,"VIII":16871,"ots":16872,"soins":16873,"accorde":16874,"dage":16875,"encla":16876,"Joe":16877,"territoriales":16878,"réellement":16879,"meilleures":16880,"Alphonse":16881,"RE":16882,"journalistes":16883,"Pat":16884,"municipaux":16885,"protoc":16886,"vraiment":16887,"collecte":16888,"God":16889,"Prusse":16890,"faune":16891,"Brian":16892,"èvres":16893,"empor":16894,"modifié":16895,"ensembles":16896,"issues":16897,"Tony":16898,"cub":16899,"récente":16900,"prédé":16901,"ateliers":16902,"dys":16903,"électeurs":16904,"spectateurs":16905,"Cad":16906,"réalisées":16907,"Dauph":16908,"veloppe":16909,"répar":16910,"cordes":16911,"commerciales":16912,"house":16913,"écrivains":16914,"Kur":16915,"millé":16916,"tentatives":16917,"Famille":16918,"dépen":16919,"paysages":16920,"Face":16921,"Ky":16922,"Uk":16923,"anniver":16924,"Hugues":16925,"démons":16926,"Steph":16927,"Gene":16928,"1871":16929,"Brown":16930,"russes":16931,"initiale":16932,"Williams":16933,"tones":16934,"conflu":16935,"Brest":16936,"masculin":16937,"concentre":16938,"puissances":16939,"cellule":16940,"gothique":16941,"pratiquement":16942,"adversaires":16943,"Dy":16944,"minor":16945,"arde":16946,"1890":16947,"cière":16948,"pourra":16949,"ignons":16950,"équipement":16951,"occupent":16952,"orn":16953,"piers":16954,"1906":16955,"tari":16956,"déser":16957,"choisir":16958,"graphiques":16959,"odique":16960,"Tokyo":16961,"nante":16962,"parisienne":16963,"bant":16964,"Années":16965,"own":16966,"Florence":16967,"ão":16968,"oivent":16969,"singu":16970,"modeste":16971,"sauver":16972,"compréhen":16973,"spécialisée":16974,"fossi":16975,"vad":16976,"RS":16977,"virtu":16978,"conclut":16979,"mers":16980,"amateur":16981,"Windows":16982,"avier":16983,"Non":16984,"clergé":16985,"servatoire":16986,"admis":16987,"considérer":16988,"Steve":16989,"reconnaître":16990,"Sala":16991,"Virgin":16992,"réception":16993,"paroisses":16994,"adopte":16995,"emploie":16996,"audio":16997,"ceci":16998,"espoir":16999,"\"«":17000,"como":17001,"couramment":17002,"raille":17003,"combattre":17004,"pulsion":17005,"Vig":17006,"hété":17007,"portait":17008,"Love":17009,"Irak":17010,"collines":17011,"théâ":17012,"rol":17013,"uk":17014,"Époque":17015,"servent":17016,"Mem":17017,"Ak":17018,"tifications":17019,"codi":17020,"restant":17021,"suffixe":17022,"studios":17023,"ignan":17024,"finances":17025,"créant":17026,"retirer":17027,"chape":17028,"mâle":17029,"1907":17030,"programmation":17031,"dépl":17032,"confie":17033,"citoyen":17034,"Aisne":17035,"Bure":17036,"brou":17037,"proprement":17038,"ingénieurs":17039,"Élisabeth":17040,"abré":17041,"guère":17042,"veuve":17043,"bulle":17044,"Liv":17045,"sombre":17046,"Constantin":17047,"Franc":17048,"1901":17049,"industriels":17050,"Chin":17051,"initial":17052,"prêt":17053,"Amiens":17054,"péné":17055,"logiciels":17056,"vignon":17057,"UD":17058,"observations":17059,"trophe":17060,"Aussi":17061,"endom":17062,"Franco":17063,"considèrent":17064,"mous":17065,"âgée":17066,"grandeur":17067,"disant":17068,"abandonner":17069,"AL":17070,"aig":17071,"gio":17072,"ouvrir":17073,"lacs":17074,"sucre":17075,"largeur":17076,"incorpor":17077,"rep":17078,"Hér":17079,"pluie":17080,"Harry":17081,"impéra":17082,"RN":17083,"réélu":17084,"israéli":17085,"iran":17086,"navigation":17087,"vertu":17088,"male":17089,"Alger":17090,"supérieures":17091,"phrase":17092,"explor":17093,"rival":17094,"sauvage":17095,"ponts":17096,"Père":17097,"Villen":17098,"évoluer":17099,"ieur":17100,"combus":17101,"actuelles":17102,"Cru":17103,"suppression":17104,"retire":17105,"provenance":17106,"magistr":17107,"Leon":17108,"Concer":17109,"basque":17110,"Log":17111,"erne":17112,"itant":17113,"Naples":17114,"enqu":17115,"passée":17116,"Sing":17117,"ïsme":17118,"culer":17119,"parfaitement":17120,"clients":17121,"commerciaux":17122,"dépôt":17123,"débats":17124,"argile":17125,"labore":17126,"mélo":17127,"portation":17128,"renforcer":17129,"amélioration":17130,
[...]
